<unk>	0
<s>	0
</s>	0
、	-2.75036
▁	-3.02215
?	-3.58218
!	-3.73681
......	-4.0623
の	-4.11613
は	-4.38472
が	-4.4845
に	-4.69594
を	-4.74929
な	-5.0371
。	-5.05217
か	-5.12434
と	-5.14867
も	-5.19838
で	-5.21196
▁......	-5.36128
よ	-5.41632
って	-5.51755
から	-5.62435
っ	-5.66742
><	-5.68447
だ	-5.68545
/	-5.68901
ね	-5.79032
!?	-5.82854
rp	-5.91851
>	-5.93764
お	-5.99972
し	-6.00895
!!	-6.02857
<	-6.08281
い	-6.11388
...	-6.143
です	-6.17448
ー	-6.19898
さん	-6.28575
る	-6.31942
その	-6.36414
して	-6.36495
や	-6.41246
ッ	-6.43744
て	-6.44445
さ	-6.45563
わ	-6.47852
でも	-6.48935
この	-6.50332
.	-6.51663
▁あ	-6.53709
た	-6.56235
・・・	-6.59261
rt	-6.60803
rb	-6.61179
ruby	-6.61191
ら	-6.61769
なら	-6.62247
ですか	-6.6337
▁え	-6.64234
▁はい	-6.72328
ん	-6.72915
あ	-6.73143
り	-6.76302
ぞ	-6.77305
した	-6.77472
く	-6.78685
する	-6.8027
人	-6.81724
んだ	-6.83862
――	-6.83933
あの	-6.86807
へ	-6.91065
には	-6.92622
』	-6.93267
もう	-6.95371
う	-6.96772
ない	-6.96834
▁ああ	-6.97577
▁いや	-6.98242
とか	-6.98934
き	-7.02669
え	-7.0345
)	-7.05654
・	-7.06611
様	-7.06819
なんて	-7.0951
ちゃん	-7.09569
そう	-7.09577
ス	-7.09582
~	-7.0975
けど	-7.11323
(	-7.13775
一	-7.14143
のか	-7.15061
だから	-7.15538
す	-7.1594
ア	-7.1706
ですね	-7.18365
▁それは	-7.19831
▁お	-7.20625
まで	-7.20672
じゃ	-7.21262
だな	-7.23687
『	-7.2476
だよ	-7.25222
それは	-7.25502
大	-7.26954
み	-7.28176
・・	-7.28584
こと	-7.2898
何	-7.32012
いい	-7.33291
ねえ	-7.34804
そんな	-7.35659
君	-7.36406
ト	-7.37159
かな	-7.38355
こ	-7.39159
じゃない	-7.3958
見	-7.39732
った	-7.40441
ちょっと	-7.41037
では	-7.41183
>(<	-7.42049
いた	-7.42175
)<	-7.4219
▁じゃあ	-7.42884
つ	-7.43554
いる	-7.4583
ねぇ	-7.46241
ろ	-7.46886
これ	-7.46935
▁うん	-7.46946
という	-7.48764
何か	-7.49204
それ	-7.49248
ま	-7.50255
▁――	-7.50685
私	-7.50754
▁でも	-7.51037
また	-7.51376
今	-7.51819
▁............	-7.52073
め	-7.52095
▁あの	-7.52703
だろ	-7.52832
事	-7.53673
ば	-7.53802
とは	-7.53998
私は	-7.54211
なんか	-7.5449
▁そう	-7.54817
御	-7.55556
いや	-7.55634
お前	-7.5635
だろう	-7.56555
ご	-7.56639
だって	-7.56698
▁その	-7.57541
なんだ	-7.57546
まだ	-7.57695
のは	-7.58556
でしょう	-7.58745
ク	-7.59275
だけ	-7.60589
れ	-7.61426
カ	-7.61452
ですよ	-7.61661
物	-7.61963
者	-7.62436
手	-7.64676
ぁ	-7.64781
だった	-7.6498
出	-7.65333
ます	-7.65843
よう	-7.6799
ある	-7.68197
子	-7.68414
ル	-7.68454
んだよ	-7.69205
んですか	-7.69606
br	-7.697
▁ええ	-7.70067
ナ	-7.70305
分	-7.70376
はい	-7.70397
ド	-7.71206
——	-7.71252
ン	-7.73184
▁まあ	-7.73583
にも	-7.73894
▁ん	-7.73983
なぁ	-7.74313
気	-7.74358
▁この	-7.74622
だと	-7.74677
▁では	-7.76273
▁/>	-7.76473
あれ	-7.76836
▁それで	-7.7718
本当に	-7.77221
これは	-7.78341
ぜ	-7.79114
中	-7.79392
なんで	-7.79536
マ	-7.79985
む	-7.80456
より	-7.80544
よく	-7.80551
ム	-7.80792
け	-7.81033
▁そ	-7.81997
▁何	-7.82813
タ	-7.82958
リ	-7.83099
▁えっ	-7.83631
上	-7.83883
イ	-7.83885
いて	-7.83966
本	-7.84055
として	-7.8444
になる	-7.85798
話	-7.85904
生	-7.85961
良い	-7.86113
している	-7.8703
▁おい	-7.87055
でしょ	-7.87466
下	-7.87606
俺	-7.88041
▁う	-7.88615
こんな	-7.89053
ラ	-7.89198
がある	-7.89561
んで	-7.90617
私の	-7.90964
長	-7.90986
家	-7.9106
私が	-7.9137
コ	-7.92119
シ	-7.93068
どうして	-7.93438
殿	-7.94006
まあ	-7.9438
ああ	-7.95173
時	-7.95268
俺は	-7.96358
せ	-7.97143
くん	-7.97427
日	-7.98406
方	-7.99822
なかった	-8.00751
山	-8.01192
早く	-8.01323
のですか	-8.02195
▁もう	-8.02781
三	-8.02816
前	-8.0321
もの	-8.03689
女	-8.04037
わね	-8.04174
どう	-8.04725
ツ	-8.04889
オ	-8.04986
ひ	-8.05159
道	-8.0542
よね	-8.06126
目	-8.06221
月	-8.06744
チ	-8.07206
ので	-8.07511
じゃあ	-8.07603
んです	-8.0858
不	-8.08607
それで	-8.08713
ち	-8.08924
力	-8.09233
ず	-8.09629
れば	-8.09768
ふ	-8.10225
ウ	-8.1042
になって	-8.1043
ました	-8.1043
戦	-8.10523
二	-8.11053
▁あれ	-8.1183
水	-8.11959
神	-8.12106
1	-8.12394
ノ	-8.12551
▁そんな	-8.1293
うん	-8.12985
俺の	-8.13308
▁だから	-8.1347
ですが	-8.13655
所	-8.13983
フ	-8.14566
やる	-8.15023
小	-8.15123
々	-8.15243
ください	-8.16118
口	-8.1615
ロ	-8.16228
らしい	-8.16265
たい	-8.16399
▁お前	-8.16561
▁いえ	-8.16952
名	-8.17553
なの	-8.17849
金	-8.17886
▁...	-8.17963
キ	-8.17986
心	-8.18044
▁ちょっと	-8.18099
かい	-8.18354
国	-8.18437
少し	-8.18637
された	-8.1889
ように	-8.19574
じ	-8.20333
のこと	-8.20515
ど	-8.21045
できる	-8.21135
サ	-8.21515
かしら	-8.21626
ぬ	-8.21667
無	-8.21766
▁あっ	-8.21918
ミ	-8.22023
▁そうか	-8.2226
んだけど	-8.22348
2	-8.22397
ことを	-8.22434
そ	-8.22475
来	-8.22838
じゃないか	-8.22922
だが	-8.23339
▁これは	-8.23421
夜	-8.23911
ネ	-8.24226
わよ	-8.2429
▁なんで	-8.2441
である	-8.24427
さんは	-8.2454
レ	-8.25062
先	-8.25159
なあ	-8.25201
グ	-8.25299
大丈夫	-8.25413
俺が	-8.2629
と思う	-8.26579
▁私は	-8.26751
▁しかし	-8.26853
男	-8.27126
など	-8.27194
たら	-8.2738
まさか	-8.27539
行く	-8.27831
ズ	-8.28005
さま	-8.28187
エ	-8.28607
だけど	-8.2863
だね	-8.28706
野	-8.28938
それを	-8.29082
くらい	-8.29335
行	-8.29409
何を	-8.29607
でしょうか	-8.29956
年	-8.30089
ガ	-8.30198
しか	-8.3032
やっぱり	-8.30804
外	-8.30945
田	-8.30971
人間	-8.31153
▁・・・	-8.3142
やって	-8.31916
見て	-8.32033
ような	-8.32094
▁それ	-8.32184
られる	-8.32495
ダ	-8.33055
られた	-8.33167
前に	-8.33273
言う	-8.33628
リー	-8.33985
ことは	-8.35748
ぅ	-8.36019
時間	-8.36022
してる	-8.36236
ジ	-8.36602
します	-8.36643
▁はぁ	-8.36734
ではない	-8.3728
ちゃんと	-8.37554
こう	-8.37638
テ	-8.378
ぐ	-8.37849
悪	-8.37937
▁なに	-8.3815
さんが	-8.38261
魔法	-8.38732
ばかり	-8.39234
言って	-8.39242
後	-8.39324
悪い	-8.39473
バ	-8.39527
地	-8.39542
先生	-8.39627
部	-8.39636
ほど	-8.40202
聞いて	-8.40464
先輩	-8.40552
体	-8.40803
のです	-8.40838
ところ	-8.4091
なさい	-8.40942
▁あー	-8.41124
▁あら	-8.41286
くれ	-8.41668
来た	-8.4207
無い	-8.42158
入	-8.42292
一人	-8.42356
頭	-8.42494
▁さて	-8.42522
会	-8.42922
そんなに	-8.43069
みんな	-8.43173
一緒に	-8.43365
かった	-8.43536
とも	-8.4357
いない	-8.43613
ません	-8.43781
それに	-8.43841
なのか	-8.43915
のよ	-8.43964
▁これ	-8.44232
今日は	-8.44602
ハ	-8.4474
のに	-8.44993
▁なるほど	-8.45012
▁私	-8.45856
城	-8.4588
ヤ	-8.45883
行って	-8.46178
お前は	-8.46246
もっと	-8.46246
ニ	-8.46435
メ	-8.46487
考え	-8.46564
重	-8.46602
私も	-8.46711
▁よし	-8.46739
内	-8.46745
なに	-8.46792
になった	-8.46811
一つ	-8.46968
ですから	-8.47076
デ	-8.47359
君は	-8.47382
来る	-8.47398
間	-8.47417
違う	-8.4751
ここに	-8.47813
▁まぁ	-8.47821
ねー	-8.47903
のだ	-8.4791
それが	-8.48033
用	-8.48163
っと	-8.48354
にゃ	-8.48883
ブ	-8.49436
足	-8.49598
したら	-8.4964
げ	-8.49673
したい	-8.49676
木	-8.49919
海	-8.49979
身	-8.50222
高	-8.50223
▁どうして	-8.50417
馬	-8.50606
取り	-8.50643
別に	-8.50752
軍	-8.5078
数	-8.50986
どんな	-8.50993
奴	-8.51564
しい	-8.51586
▁なんだ	-8.51777
べ	-8.51825
元	-8.52157
面	-8.52275
なんですか	-8.52349
代	-8.52395
》	-8.52403
下さい	-8.5241
わけ	-8.52998
にして	-8.5311
王	-8.53136
なく	-8.53351
事を	-8.53459
▁今	-8.53813
はない	-8.53845
ぇ	-8.54089
僕は	-8.54162
敵	-8.54324
おい	-8.5456
ぃ	-8.54595
石	-8.54956
つて	-8.55125
び	-8.55205
居	-8.5542
来て	-8.55552
問題	-8.55561
方が	-8.55642
ぉ	-8.55842
▁ま	-8.56087
真	-8.56493
こそ	-8.56645
何で	-8.56683
しろ	-8.5682
モ	-8.57137
ここで	-8.57335
あんた	-8.57481
かもしれない	-8.57519
います	-8.57527
しました	-8.57529
風	-8.57821
船	-8.57993
確かに	-8.58175
ましょう	-8.58269
んじゃ	-8.58381
言った	-8.58398
っている	-8.58433
▁さあ	-8.58467
ならば	-8.58757
着	-8.59053
さんの	-8.5954
思い	-8.5968
天	-8.59792
される	-8.59819
川	-8.59824
▁まさか	-8.59879
きた	-8.59908
〜	-8.60032
心配	-8.60457
白	-8.60541
だぞ	-8.60582
顔	-8.60739
そうか	-8.6074
3	-8.60772
だけで	-8.60809
愛	-8.60957
くる	-8.6101
あなた	-8.61381
なんだよ	-8.61563
主	-8.62876
花	-8.62892
自分の	-8.62919
▁はあ	-8.63031
まぁ	-8.63206
▁あぁ	-8.63471
そういう	-8.63612
させて	-8.63722
しない	-8.63871
屋	-8.63988
けれど	-8.64011
性	-8.64026
新	-8.64167
ゴ	-8.64267
皆	-8.6444
これから	-8.64573
いく	-8.64661
▁俺は	-8.64785
通	-8.64803
ったら	-8.64821
そうだ	-8.64877
しかし	-8.65068
兵	-8.65352
空	-8.65451
言い	-8.65812
逃げ	-8.65883
人の	-8.65929
スト	-8.65963
光	-8.66103
▁そうだ	-8.66129
されて	-8.66156
これで	-8.66241
何も	-8.66245
ぎ	-8.66331
書	-8.66564
直	-8.66596
寝	-8.66989
もしかして	-8.67002
無理	-8.67177
そんなこと	-8.67382
ぶ	-8.6753
”	-8.67588
はず	-8.6763
品	-8.67704
▁まだ	-8.67747
でございます	-8.67778
▁おお	-8.68379
ている	-8.68456
ただ	-8.68503
作	-8.68564
感じ	-8.6864
▁えっと	-8.68723
みたいな	-8.68753
からな	-8.68835
ながら	-8.68868
法	-8.68912
《	-8.6904
人が	-8.69196
回	-8.69598
平	-8.69772
持って	-8.69831
正	-8.69939
通り	-8.69973
プ	-8.69985
全部	-8.70011
▁何か	-8.70042
機	-8.70253
美	-8.70335
▁それが	-8.70369
なくて	-8.70493
仕事	-8.70547
でした	-8.7065
強い	-8.70662
ザ	-8.70731
いって	-8.70801
できない	-8.70901
実	-8.71216
村	-8.71299
んだから	-8.71557
あんな	-8.7159
僕	-8.7164
知らない	-8.71685
変	-8.71984
音	-8.72009
馬鹿	-8.72138
だし	-8.72148
強	-8.72171
ですよね	-8.72306
ァ	-8.72316
について	-8.72667
▁はっ	-8.72688
島	-8.7275
ずっと	-8.73311
死	-8.73622
合	-8.73699
良かった	-8.73773
ベ	-8.73843
A	-8.73887
ここ	-8.73937
のですが	-8.74054
火	-8.74432
服	-8.747
姫	-8.74717
かね	-8.74781
▁『	-8.75117
考えて	-8.75202
ありがとう	-8.75229
お前の	-8.75354
みたい	-8.75427
】	-8.75589
攻撃	-8.75678
リア	-8.75887
命	-8.76271
達	-8.76276
もない	-8.76453
れる	-8.76471
先に	-8.76504
わかる	-8.76632
今の	-8.76825
▁どうした	-8.76874
門	-8.76927
のお	-8.77327
そろそろ	-8.77347
発	-8.77365
食	-8.7746
じゃん	-8.77854
あった	-8.78118
四	-8.78321
度	-8.78353
君の	-8.78476
ざ	-8.78497
的	-8.7863
▁だって	-8.78985
▁やっぱり	-8.79152
何が	-8.79273
と思って	-8.79401
▁うむ	-8.79444
わかった	-8.79507
よかった	-8.79811
▁それに	-8.79828
なる	-8.80028
一体	-8.8012
▁<	-8.802
やった	-8.80314
死ぬ	-8.80387
▁また	-8.80434
引き	-8.80452
るの	-8.80512
していた	-8.80679
ビ	-8.80725
点	-8.81055
なぜ	-8.81209
流	-8.81844
薬	-8.82008
▁本当に	-8.82425
られ	-8.82435
そして	-8.8245
勇者	-8.82697
可愛い	-8.82782
場	-8.82886
もん	-8.82912
なん	-8.82968
どうした	-8.82978
学	-8.83105
出来る	-8.83165
的な	-8.83446
んですよ	-8.83537
ってこと	-8.83623
じゃないですか	-8.83629
何故	-8.83648
同じ	-8.83652
原	-8.83666
がない	-8.8381
黒	-8.84155
ぼ	-8.84308
の事	-8.84364
すると	-8.84447
剣	-8.8446
ワ	-8.84584
次	-8.84829
▁そういえば	-8.84831
明	-8.85185
お前が	-8.85259
させる	-8.8531
おう	-8.85395
八	-8.85462
今日	-8.85607
気が	-8.85723
▁ふ	-8.85779
夢	-8.85799
すぐに	-8.8585
訳	-8.86074
場所	-8.86075
一番	-8.86079
まい	-8.86144
もし	-8.86176
他の	-8.86243
ろう	-8.86265
番	-8.86289
色	-8.8629
味	-8.86502
五	-8.86721
車	-8.86806
女の子	-8.86853
▁・・	-8.86919
私に	-8.87174
▁俺	-8.87323
あり	-8.87393
なり	-8.87663
公	-8.8783
そうな	-8.87888
▁ところで	-8.87966
親	-8.87977
お願い	-8.88076
あっ	-8.88121
知ってる	-8.88139
待って	-8.88168
傷	-8.88237
ぐらい	-8.88298
好き	-8.88331
成	-8.88595
星	-8.88647
わたし	-8.88784
ット	-8.88815
くれる	-8.88838
▁ほら	-8.88865
竜	-8.88982
▁なっ	-8.89003
どうぞ	-8.89203
解	-8.89209
関係	-8.89304
▁確かに	-8.89381
をして	-8.89445
位	-8.89554
怖い	-8.89595
▁それでは	-8.89611
があった	-8.89688
;	-8.89772
ケ	-8.90374
ところで	-8.90425
いつも	-8.90519
きっと	-8.90793
さんに	-8.90841
▁そして	-8.90997
等	-8.91018
欲しい	-8.91023
んじゃない	-8.91136
セ	-8.91193
ると	-8.91393
ええ	-8.91459
▁.........	-8.91544
必要	-8.91765
られて	-8.91832
あと	-8.91905
じゃなくて	-8.91934
手を	-8.91934
よー	-8.91936
だったら	-8.92016
あまり	-8.92028
の方が	-8.92029
るんだ	-8.92287
弾	-8.92316
よい	-8.9246
同	-8.9259
七	-8.9268
からね	-8.92813
というのは	-8.92902
▁ありがとう	-8.92978
はぁ	-8.93088
役	-8.93148
誰	-8.93416
ますよ	-8.93601
様に	-8.9361
ヒ	-8.93659
初めて	-8.93668
なんです	-8.93725
ディ	-8.93812
【	-8.93844
言	-8.93884
おります	-8.9393
二人	-8.94108
どうも	-8.94117
そこまで	-8.9421
いえ	-8.94217
師	-8.94314
んだろ	-8.9433
▁おう	-8.94335
魔	-8.94447
室	-8.94541
どこ	-8.94624
進	-8.94667
るか	-8.94674
ますか	-8.94687
万	-8.94759
、『	-8.94783
化	-8.94915
知	-8.95017
なければ	-8.9518
▁ぐ	-8.95242
すれば	-8.95254
▁こ	-8.95417
全	-8.9547
され	-8.95736
こっち	-8.9575
!!!	-8.95766
まして	-8.95766
わからない	-8.95819
すぐ	-8.95822
▁――――	-8.96016
あれは	-8.96262
▁ど	-8.96291
町	-8.96308
パ	-8.96323
ダメ	-8.96791
今は	-8.96891
ほ	-8.96968
太	-8.96986
有	-8.97007
僕の	-8.97119
帰る	-8.97168
そうだな	-8.97345
すごい	-8.97404
朝	-8.97526
歳	-8.97689
家の	-8.97702
店	-8.97933
自	-8.98095
とき	-8.9816
しよう	-8.98306
アル	-8.98687
つく	-8.98806
見た	-8.99177
隊	-8.99278
ot	-8.9928
と同じ	-8.99288
信	-8.99298
らない	-8.99313
そうです	-8.99634
義	-8.99732
文	-8.999
ター	-8.99926
ないと	-8.99945
あなたは	-8.99987
S	-9.00051
十	-9.00153
嫌	-9.00417
と思います	-9.00462
ってる	-9.00476
シャ	-9.00503
qu	-9.00531
友達	-9.00624
ティ	-9.0066
どうか	-9.00744
当	-9.00762
騎士	-9.00982
ですわ	-9.01073
時に	-9.01086
料理	-9.01124
名前	-9.01172
たの	-9.01209
形	-9.01235
人は	-9.01276
出す	-9.01326
▁だが	-9.0136
ちゃ	-9.01399
誰か	-9.01404
&	-9.01452
よりも	-9.01455
▁ふむ	-9.01505
つまり	-9.01769
約束	-9.01828
ーっ	-9.01898
▁つまり	-9.01901
さっき	-9.0217
5	-9.02226
──	-9.02227
治	-9.02238
どうしたの	-9.02355
ボ	-9.02414
んだが	-9.02449
▁何だ	-9.02582
▁了解	-9.02631
バカ	-9.02715
▁私も	-9.02749
相手	-9.02815
▁い	-9.02987
よぉ	-9.03059
ごめんなさい	-9.03089
私を	-9.03118
楽	-9.03261
なのに	-9.03423
ついて	-9.03567
してくれ	-9.03571
だろうが	-9.03629
とても	-9.03641
▁ア	-9.03657
土	-9.03736
聞く	-9.03761
感	-9.03781
結構	-9.03831
戦闘	-9.03868
共	-9.03994
動	-9.04003
良	-9.04026
腹	-9.04046
相	-9.04066
様が	-9.04304
使い	-9.04525
持ち	-9.04606
食べ	-9.04719
シュ	-9.0477
るのは	-9.04779
▁じゃ	-9.04863
レイ	-9.04962
子供	-9.04966
のかしら	-9.05017
千	-9.05143
断	-9.05221
▁これで	-9.05644
んですけど	-9.05769
別	-9.05846
エル	-9.05994
元気	-9.06146
おかしい	-9.0633
聞いた	-9.06343
つけ	-9.06433
聞き	-9.06437
▁ちょ	-9.06513
を見	-9.06531
定	-9.066
艦	-9.06723
▁何を	-9.0678
世界	-9.06798
ことが	-9.06918
▁ほう	-9.06929
放	-9.06935
を見て	-9.06935
父	-9.07059
てる	-9.07085
いま	-9.07141
実は	-9.07288
っていう	-9.07323
守	-9.07399
やり	-9.07464
俺も	-9.07496
全然	-9.07549
俺に	-9.07556
リン	-9.07566
に行く	-9.07617
ヨ	-9.07661
立ち	-9.07705
やはり	-9.07769
ゲーム	-9.07818
気持ち	-9.07844
ーン	-9.07989
。——	-9.08068
一人で	-9.08107
能力	-9.08234
スキル	-9.08299
くて	-9.08319
イン	-9.08401
術	-9.08497
早	-9.08511
何だ	-9.08608
をする	-9.08612
あたし	-9.08668
ないか	-9.08761
こんなに	-9.0885
酒	-9.08935
半	-9.09011
君が	-9.09063
たち	-9.09132
♪	-9.09165
しゃ	-9.09188
近	-9.0928
カー	-9.09284
ありがとうございます	-9.09361
バー	-9.09419
のために	-9.09459
出て	-9.09486
▁わ	-9.09496
結婚	-9.09607
ピ	-9.09763
的に	-9.09769
4	-9.09778
事は	-9.09812
我が	-9.09814
噂	-9.09907
安	-9.09988
お兄ちゃん	-9.10088
出来	-9.10115
貴様	-9.10336
るから	-9.10396
もある	-9.10402
様の	-9.10408
あなたの	-9.10446
▁何で	-9.10516
と言う	-9.10518
凄い	-9.10546
したの	-9.10559
やつ	-9.10581
出して	-9.10581
んだろう	-9.1059
ごめん	-9.10652
付け	-9.10763
ものだ	-9.10798
ほら	-9.10962
気に	-9.11034
肉	-9.11411
▁今日は	-9.11497
眼	-9.11555
ライ	-9.11725
鬼	-9.11812
込んで	-9.12238
言葉	-9.12253
▁そうだな	-9.12347
首	-9.12411
ギ	-9.1243
魔物	-9.12448
ども	-9.12486
兄	-9.12492
一度	-9.12584
ですけど	-9.12705
自分で	-9.12813
失	-9.12885
勝手に	-9.12906
早い	-9.12906
場合	-9.12912
ではないか	-9.12954
▁うーん	-9.13
助	-9.1301
どうする	-9.13147
引	-9.13174
きて	-9.13225
やら	-9.13268
母	-9.13375
妹	-9.13478
▁ご	-9.13521
分かる	-9.1358
向	-9.1379
サー	-9.13832
犬	-9.13893
▁大	-9.13905
▁こんな	-9.14044
ソ	-9.14098
いつ	-9.14141
様は	-9.14199
いました	-9.14218
東	-9.14224
説明	-9.14246
の中に	-9.14282
多	-9.14432
殺	-9.14488
られない	-9.14581
残	-9.14607
あります	-9.14613
武器	-9.14616
んな	-9.14728
宮	-9.14757
ちゃった	-9.14851
ール	-9.15085
準備	-9.15088
つい	-9.15264
ヘ	-9.1531
ここは	-9.15345
よっ	-9.15429
今まで	-9.15437
百	-9.15464
猫	-9.15745
▁あんた	-9.15829
官	-9.15934
の話	-9.15978
がいる	-9.15981
が悪い	-9.16078
女性	-9.16083
六	-9.16109
コン	-9.16193
まず	-9.16427
しても	-9.16544
▁お前は	-9.16767
立	-9.1681
意	-9.16828
▁ねえ	-9.16854
入れ	-9.16938
知っている	-9.17046
▁そりゃ	-9.17102
しまった	-9.17128
話を	-9.17304
吉	-9.17427
得	-9.17567
ゼ	-9.17627
歌	-9.17634
ポ	-9.17744
聖	-9.17811
確認	-9.17902
と一緒に	-9.17946
中に	-9.17998
これが	-9.18255
ゲ	-9.18453
ェ	-9.1851
仲間	-9.18531
丸	-9.18578
破	-9.18663
我	-9.18668
教えて	-9.18699
好	-9.18753
森	-9.18755
ック	-9.18772
▁そうですか	-9.18788
日本	-9.18847
がいい	-9.18961
▁わかった	-9.18982
血	-9.19033
やれ	-9.19135
宿	-9.19193
マン	-9.1924
への	-9.19307
つもり	-9.19512
ものを	-9.19555
ファ	-9.19586
▁大丈夫	-9.19613
意味	-9.19687
どうやって	-9.19794
▁どう	-9.19797
毒	-9.19834
かなり	-9.19872
させ	-9.19976
全て	-9.20008
帰って	-9.20015
デス	-9.20075
総	-9.20101
のう	-9.20213
▁なんか	-9.20238
急に	-9.20258
つき	-9.20285
なんだけど	-9.2034
▁うっ	-9.20363
雪	-9.20398
んですね	-9.20564
ということ	-9.20814
香	-9.20834
なかなか	-9.20892
ませ	-9.20918
人を	-9.21057
羽	-9.21094
取	-9.21151
情	-9.21154
ないよ	-9.21177
員	-9.21195
赤	-9.21198
があります	-9.21226
藤	-9.21273
いいか	-9.21552
西	-9.21605
絶対	-9.21684
変な	-9.21689
だろうな	-9.21742
しかない	-9.21785
もう少し	-9.21795
用意	-9.21823
れた	-9.21934
▁何が	-9.22194
仕	-9.22441
これを	-9.2258
娘	-9.22632
理	-9.22653
のかな	-9.22662
全員	-9.22679
出来ない	-9.22737
たくない	-9.22741
利	-9.22816
▁わかりました	-9.22824
十分	-9.22999
野郎	-9.23036
そうですね	-9.23169
殿下	-9.23308
分かった	-9.2335
になります	-9.23434
人に	-9.23435
シー	-9.23506
冒険者	-9.23545
要	-9.2358
▁なぜ	-9.23641
▁へえ	-9.23864
食べて	-9.23988
アン	-9.24008
上げ	-9.24022
つか	-9.24045
そのまま	-9.24066
種	-9.24076
優	-9.24095
面白い	-9.2425
ベル	-9.24264
のじゃ	-9.24298
もらう	-9.24483
▁別に	-9.24499
事件	-9.24548
やめ	-9.24554
すぎる	-9.24563
というか	-9.24565
異	-9.24619
報告	-9.24644
あんまり	-9.24803
らん	-9.2504
魔力	-9.25141
ないで	-9.25152
量	-9.25168
じゃないの	-9.2519
全く	-9.25261
▁私が	-9.25281
ちょ	-9.25291
入り	-9.25315
ロー	-9.25328
路	-9.25408
いった	-9.25418
こいつ	-9.25435
僕が	-9.25484
和	-9.2554
すぎ	-9.25628
なるほど	-9.25655
姉	-9.25735
者が	-9.25738
どこに	-9.25787
ホ	-9.25893
どういう	-9.25971
▁そうですね	-9.25999
とこ	-9.2613
学校	-9.26162
士	-9.26238
▁いいえ	-9.26308
のことを	-9.26312
お母さん	-9.26412
るな	-9.26423
絶対に	-9.26434
ィ	-9.26541
魔王	-9.26601
受け	-9.26609
えて	-9.26614
よな	-9.26623
▁あなた	-9.26667
死んで	-9.26696
嘘	-9.26793
いう	-9.26823
程	-9.26941
るのか	-9.27169
ラン	-9.27251
理由	-9.27277
初	-9.27354
せん	-9.27472
久	-9.27639
の方	-9.28056
つた	-9.28101
っす	-9.2811
部屋	-9.28227
貴方	-9.2824
死んだ	-9.28243
古	-9.2829
頃	-9.28351
▁んー	-9.28433
里	-9.2849
予定	-9.28639
いっ	-9.28696
教	-9.28701
▁えー	-9.28876
行き	-9.28952
答え	-9.28957
弱	-9.28995
座	-9.29012
ゆ	-9.29135
行った	-9.29151
んじゃないか	-9.29157
何とか	-9.29165
嫌い	-9.29182
松	-9.29317
武	-9.29411
大変	-9.29428
▁ほ	-9.29491
でき	-9.29629
レン	-9.2964
あいつ	-9.2969
お前ら	-9.29828
俺を	-9.29836
ここまで	-9.29949
んですが	-9.29952
みたいに	-9.29957
業	-9.29996
▁くっ	-9.30027
嬉しい	-9.30125
とりあえず	-9.30165
のように	-9.30228
余	-9.3026
鳥	-9.30482
玉	-9.30519
▁ありがとうございます	-9.30524
ないから	-9.30595
さあ	-9.3064
後で	-9.30723
を持って	-9.30754
端	-9.30859
それから	-9.30923
対	-9.30929
ほしい	-9.30957
情報	-9.30976
連れて	-9.31003
目に	-9.31028
声	-9.31041
痛い	-9.31042
さっさと	-9.31135
さんと	-9.31154
よろしく	-9.3116
美味しい	-9.31177
レベル	-9.31178
以上	-9.31199
▁私の	-9.31212
居る	-9.31222
旅	-9.31261
なんだから	-9.31289
ことに	-9.31342
落	-9.31397
んだな	-9.31413
お姉ちゃん	-9.31435
このまま	-9.31484
されている	-9.31498
者は	-9.31577
作戦	-9.31718
民	-9.31814
茶	-9.31824
帰	-9.31876
かよ	-9.31908
明日	-9.3203
▁何故	-9.32116
は無い	-9.32125
転	-9.32195
家に	-9.32388
▁そんなこと	-9.32446
切	-9.32486
ために	-9.32546
ペ	-9.32586
出し	-9.32639
のような	-9.32667
誰が	-9.32793
根	-9.32825
ちゃんは	-9.32829
勝	-9.32921
はどう	-9.32944
▁とりあえず	-9.3298
▁もしかして	-9.33255
危険	-9.33302
参	-9.33524
樹	-9.33538
しましょう	-9.33605
にする	-9.33609
“	-9.33614
.........	-9.33705
命令	-9.33711
▁それも	-9.33715
急	-9.3376
連絡	-9.33782
良く	-9.33816
生きて	-9.33961
南	-9.34068
恋	-9.34187
落ち	-9.34464
いくら	-9.34585
くない	-9.34632
いきなり	-9.34642
青	-9.3468
部隊	-9.34813
▁そういう	-9.34827
はもう	-9.3491
結果	-9.34932
寺	-9.34985
線	-9.35041
井	-9.35155
ること	-9.35265
高い	-9.35306
組	-9.35373
刀	-9.356
える	-9.35633
あぁ	-9.35671
はまだ	-9.35674
耳	-9.35775
依頼	-9.35881
式	-9.35904
殺し	-9.35978
▁それじゃあ	-9.36149
なー	-9.36155
おる	-9.36249
だけだ	-9.3628
権	-9.36295
仲	-9.3634
ため	-9.36348
客	-9.36355
弟	-9.36356
一応	-9.36392
えっ	-9.36405
>》	-9.36408
込み	-9.36444
《<	-9.36503
熱	-9.36564
第一	-9.36568
いるのか	-9.36576
あなたが	-9.36589
サン	-9.36628
華	-9.36711
困る	-9.3673
であろう	-9.36753
~!	-9.36778
ないの	-9.36809
語	-9.36834
▁あれは	-9.36859
遠	-9.36872
置いて	-9.36938
ではありません	-9.3698
終わった	-9.37062
何の	-9.37072
暇	-9.37108
/\	-9.37278
止め	-9.37304
るぞ	-9.37343
▁いい	-9.37357
シア	-9.3747
息	-9.37601
左	-9.37641
邪魔	-9.37657
存在	-9.37668
さんも	-9.37682
ちゃう	-9.37732
北	-9.37792
黙って	-9.37889
渡	-9.37995
▁やはり	-9.38012
腕	-9.38028
隊長	-9.38037
よろしい	-9.38097
魔術	-9.38115
えっと	-9.38343
出る	-9.38346
▁どうしたの	-9.3836
さえ	-9.38427
若い	-9.38432
なし	-9.38495
大丈夫か	-9.38506
してくれる	-9.38509
両	-9.38526
逆	-9.38624
退	-9.38671
起こ	-9.38743
なんとか	-9.38796
大きな	-9.38804
波	-9.38939
▁違う	-9.3899
身体	-9.38996
打ち	-9.39069
霊	-9.39113
銃	-9.39115
追い	-9.39118
いいのか	-9.39266
技	-9.39271
お願いします	-9.39352
モン	-9.39436
ーい	-9.39491
だぜ	-9.39522
o	-9.39537
難しい	-9.39552
貴族	-9.39604
〉	-9.39625
限り	-9.39631
いいよ	-9.3965
▁それじゃ	-9.39713
世	-9.39738
龍	-9.39783
e	-9.39844
乗り	-9.39863
怪我	-9.39895
だと思う	-9.39928
職	-9.39964
話は	-9.40033
氏	-9.40121
違い	-9.40286
それも	-9.40352
があって	-9.40362
素	-9.4039
によって	-9.40438
んでしょ	-9.405
分からない	-9.40507
どの	-9.40514
▁実は	-9.40544
▁ひ	-9.40585
妻	-9.40648
ニャ	-9.40648
警察	-9.40649
特	-9.40653
子さん	-9.40737
いったい	-9.4085
a	-9.40876
目的	-9.4091
ラー	-9.4091
食べる	-9.40963
昨日	-9.40964
だからな	-9.41003
入って	-9.4108
クロ	-9.41103
▁もちろん	-9.41196
絵	-9.41331
若	-9.41368
裏	-9.41446
M	-9.41491
︎	-9.41509
▁それなら	-9.41563
私と	-9.4163
だけは	-9.41658
矢	-9.41682
それだけ	-9.41719
いいの	-9.41722
思う	-9.41818
型	-9.41834
....	-9.41873
桜	-9.42012
のかい	-9.42041
痛	-9.42138
話して	-9.42155
鉄	-9.42195
をお	-9.42242
パン	-9.42283
確か	-9.42425
新しい	-9.42468
▁そうです	-9.42487
病	-9.42564
んでしょう	-9.4275
望	-9.42787
最近	-9.42824
もらった	-9.42875
いるんだ	-9.42915
なよ	-9.42937
右	-9.43001
行け	-9.43009
忘れ	-9.43075
横	-9.43077
ませんか	-9.43081
やろう	-9.43093
為	-9.431
すみません	-9.43126
に対して	-9.43127
撃	-9.43361
きました	-9.43384
伝	-9.43386
ても	-9.43463
何でも	-9.43548
▁そんなに	-9.43572
草	-9.43573
谷	-9.43613
▁(	-9.43685
頑張って	-9.4373
ーー	-9.4376
なきゃ	-9.43804
切り	-9.43894
はある	-9.43941
はずだ	-9.43953
負け	-9.4396
物を	-9.43973
許	-9.43994
勢	-9.44084
▁おいおい	-9.44099
片	-9.44101
判	-9.44135
ありません	-9.44161
師匠	-9.44242
だよね	-9.44314
春	-9.44428
戦争	-9.44436
行こう	-9.4452
してた	-9.44573
10	-9.44711
れない	-9.44712
冗談	-9.44747
状況	-9.44783
動き	-9.44819
は何	-9.44821
勉強	-9.45028
器	-9.45108
D	-9.45207
んの	-9.45264
側	-9.45267
結	-9.45327
うち	-9.45365
おまえ	-9.4538
来い	-9.45448
壁	-9.45564
でしょうね	-9.45579
だったの	-9.45619
アレ	-9.4568
ではなく	-9.45702
んだぞ	-9.45753
向こう	-9.458
なにか	-9.45806
▁ですが	-9.45807
ニー	-9.45864
酷い	-9.45919
▁おや	-9.4593
モンスター	-9.45937
っちゃ	-9.45938
と思った	-9.45948
ことがある	-9.4609
骨	-9.46107
領	-9.462
ことも	-9.46208
処	-9.46209
ジャ	-9.46338
兄さん	-9.46356
れて	-9.46367
ってのは	-9.46399
もいい	-9.46439
罪	-9.46526
すること	-9.46531
おれ	-9.46544
行動	-9.46704
質問	-9.46838
出した	-9.46976
わかって	-9.47082
面倒	-9.47086
してください	-9.47139
って言った	-9.47156
清	-9.47383
時は	-9.47406
▁僕は	-9.47428
▁えぇ	-9.4746
超	-9.4753
助け	-9.47539
過ぎ	-9.47554
するの	-9.47644
相談	-9.4766
なのです	-9.4771
魚	-9.4774
アンタ	-9.47755
アー	-9.47802
陣	-9.47937
てくれ	-9.47944
陛下	-9.47965
彼女	-9.47971
合い	-9.48
逃げる	-9.4808
虫	-9.48119
るよ	-9.48275
ればいい	-9.48285
覚悟	-9.48299
雨	-9.483
頼む	-9.48318
▁なら	-9.48377
王子	-9.48469
めて	-9.48473
C	-9.48488
こういう	-9.48518
前の	-9.48707
▁よく	-9.48717
に行って	-9.48846
必ず	-9.4887
マー	-9.48897
戦い	-9.48918
いたら	-9.48963
振り	-9.49084
お金	-9.49119
おいで	-9.49167
反	-9.49189
色々	-9.49255
掛け	-9.49284
差	-9.49348
ジュ	-9.4943
▁゙	-9.49444
フィ	-9.49454
になり	-9.49458
▁ただ	-9.49493
▁それにしても	-9.49613
のだが	-9.49623
うちの	-9.49626
そりゃ	-9.49652
せよ	-9.49693
飯	-9.49698
他	-9.49712
電話	-9.49742
返	-9.49745
できた	-9.49904
お話	-9.49919
訓練	-9.49983
こうして	-9.49996
ギルド	-9.50099
かも	-9.50179
せる	-9.50194
砲	-9.50216
▁いやいや	-9.50241
ひとつ	-9.50256
だわ	-9.50257
▁ち	-9.50261
んだね	-9.50267
▁ここ	-9.50291
しないで	-9.50312
装備	-9.50367
そこで	-9.50375
かけ	-9.50504
本当	-9.5052
わざわざ	-9.50549
そういうこと	-9.50625
▁もし	-9.50628
誰だ	-9.5074
ですな	-9.5081
割	-9.50818
それでは	-9.50819
秋	-9.50905
たん	-9.50973
▁俺の	-9.5103
寄	-9.51076
I	-9.51102
あたり	-9.51168
事実	-9.51177
ります	-9.51194
離	-9.51204
獣	-9.51282
胸	-9.51288
さう	-9.51339
指	-9.51433
橋	-9.51463
館	-9.51499
連	-9.51531
付き	-9.51588
家族	-9.516
好きな	-9.51698
連中	-9.5172
死に	-9.51735
夫	-9.51807
なので	-9.51832
ちゃんが	-9.51848
研究	-9.51938
にある	-9.51944
りゃ	-9.51983
よし	-9.52228
っち	-9.52407
在	-9.52446
舞	-9.52635
わたしは	-9.52642
曲	-9.52653
みて	-9.52693
見る	-9.52703
に来た	-9.52757
いません	-9.52796
葉	-9.52798
そんな事	-9.52818
せい	-9.53033
▁一	-9.53099
味方	-9.53106
の中で	-9.53121
方法	-9.53158
嫁	-9.53183
そこ	-9.53412
へん	-9.53414
まるで	-9.53461
じゃねえか	-9.53559
見え	-9.53608
なくても	-9.53615
目を	-9.5369
俺達	-9.53743
たり	-9.53747
顔を	-9.53785
としては	-9.53983
頼	-9.5402
そういえば	-9.54066
▁貴様	-9.54074
帰り	-9.5412
ものは	-9.54123
のある	-9.5413
・・・・	-9.54229
▁これが	-9.54235
力を	-9.54329
▁へぇ	-9.54355
やめて	-9.54404
のですね	-9.54421
紙	-9.54423
とにかく	-9.54466
なくなる	-9.54469
かぁ	-9.54504
くれた	-9.54507
奴ら	-9.54596
難	-9.54816
が無い	-9.54828
広	-9.54851
君に	-9.54908
しな	-9.5491
お父さん	-9.54936
しばらく	-9.54998
承知	-9.55003
自分	-9.55022
立て	-9.55036
助けて	-9.55053
でいい	-9.55229
現	-9.55284
ごと	-9.55295
知って	-9.55319
ヌ	-9.5535
それでも	-9.55375
駄目	-9.55497
込む	-9.55597
っけ	-9.55602
地球	-9.55605
幸せ	-9.55618
宇宙	-9.55645
団	-9.55672
族	-9.55805
▁まったく	-9.55833
髪	-9.55861
覚え	-9.55875
――――	-9.55879
6	-9.55879
ずに	-9.559
縁	-9.55986
街	-9.55988
かん	-9.56132
▁俺が	-9.56133
しまう	-9.56149
戸	-9.56174
E	-9.56193
アタシ	-9.562
乗	-9.56269
私達	-9.56315
終わり	-9.56326
笑	-9.5638
刺	-9.56381
多分	-9.56408
りました	-9.56439
なのよ	-9.56443
ブラ	-9.56488
オレ	-9.56518
分かって	-9.56573
政	-9.56576
▁へ	-9.56627
ちゃんの	-9.56693
派	-9.56753
と云う	-9.56759
角	-9.56761
極	-9.56765
当然	-9.56773
旦那	-9.56888
坂	-9.56996
普通	-9.57089
ことだ	-9.57113
瀬	-9.57199
条件	-9.57403
勝負	-9.57406
のでしょうか	-9.57593
▁む	-9.57634
そうだった	-9.57698
そこに	-9.57753
深	-9.57776
期	-9.57844
奈	-9.57917
報	-9.57995
普通に	-9.58028
いるの	-9.58042
ナー	-9.58047
どこか	-9.58049
としても	-9.58054
しっかり	-9.58074
であります	-9.5808
▁だったら	-9.58152
願	-9.58185
あって	-9.58232
国の	-9.5825
仰	-9.58257
押し	-9.58368
個	-9.58426
毎日	-9.58434
のね	-9.58595
蔵	-9.58614
T	-9.58618
▁それを	-9.58677
覚えて	-9.58731
お兄さん	-9.58772
わたしの	-9.58831
ひと	-9.58835
はありません	-9.58902
▁なあ	-9.58974
歩	-9.58993
夏	-9.59105
とう	-9.59158
号	-9.59206
と言って	-9.59221
ガキ	-9.59292
それとも	-9.59326
迎え	-9.59343
尾	-9.59428
O	-9.59433
使える	-9.59436
ボス	-9.5949
閣下	-9.5956
観	-9.59782
そっち	-9.59842
ユ	-9.59854
待て	-9.59883
老	-9.59904
するのは	-9.60053
狂	-9.601
九	-9.60103
があるの	-9.60177
づ	-9.60216
いけ	-9.60233
ないように	-9.60238
貴	-9.60267
策	-9.6027
買い	-9.60395
おく	-9.60406
事が	-9.60419
電	-9.60441
誰も	-9.60548
たのか	-9.60589
ジェ	-9.60664
自分が	-9.60681
他に	-9.6073
はっ	-9.60751
次は	-9.60758
大人	-9.60809
席	-9.60884
従	-9.60993
ボク	-9.61005
生活	-9.6106
って言う	-9.61097
今から	-9.61132
殺す	-9.61243
見せ	-9.61275
作って	-9.61284
論	-9.61292
末	-9.61325
いっぱい	-9.61333
たんだ	-9.61373
浮	-9.61525
長い	-9.6155
気分	-9.61655
しないと	-9.6172
クラ	-9.61735
気になる	-9.61788
危ない	-9.61795
失礼	-9.61974
の手	-9.61981
台	-9.6202
張	-9.62039
陽	-9.62134
んじゃないの	-9.62242
の御	-9.62254
彼	-9.6231
衣	-9.62369
衆	-9.62375
ヴィ	-9.62383
記憶	-9.62393
もらって	-9.62396
集	-9.62431
私たち	-9.62463
増	-9.62484
己	-9.62587
介	-9.62592
好い	-9.62665
ハイ	-9.6272
起	-9.62782
▁さぁ	-9.62857
クソ	-9.62859
この子	-9.62891
三人	-9.62928
と言った	-9.62942
るんですか	-9.63037
をした	-9.63142
しています	-9.6321
産	-9.63316
結局	-9.63325
▁そっか	-9.63452
堂	-9.63643
趣味	-9.63675
悪魔	-9.63792
するか	-9.63806
穴	-9.63888
簡単に	-9.63908
質	-9.6392
念	-9.64011
表	-9.64011
仕方ない	-9.64014
言え	-9.64096
市	-9.6411
佐	-9.64126
▁ここは	-9.6413
こい	-9.64253
さっきの	-9.64343
姉さん	-9.64408
さぁ	-9.64453
母さん	-9.64489
そうなの	-9.64526
なんだか	-9.64533
証拠	-9.64538
それなら	-9.64591
べき	-9.64651
此	-9.64685
どうだ	-9.6469
姿	-9.64708
者の	-9.64746
何時	-9.64753
B	-9.64757
付いて	-9.64766
なのですか	-9.64783
どちら	-9.6479
どういうこと	-9.64803
二つ	-9.64813
話し	-9.64846
〈	-9.64909
もちろん	-9.64921
喧嘩	-9.64969
チャ	-9.65
かと	-9.65018
女子	-9.65028
お嬢様	-9.65072
まし	-9.65163
お前さん	-9.65247
格好	-9.65247
ますね	-9.65265
使って	-9.6528
大きい	-9.65419
▁それって	-9.65489
ましょうか	-9.65514
にしても	-9.65517
ルー	-9.6553
奥	-9.65569
▁あたし	-9.65577
わたくし	-9.65579
それって	-9.6558
俺たち	-9.65634
まる	-9.6566
にとって	-9.65733
久しぶり	-9.65847
があれば	-9.65907
能	-9.65915
以前	-9.65974
らず	-9.65979
なんでも	-9.65992
崎	-9.66004
レー	-9.66027
P	-9.66051
かけて	-9.66073
秘密	-9.66079
切れ	-9.66154
パー	-9.6616
たく	-9.66236
▁それでも	-9.66238
だよな	-9.66283
▁ごめん	-9.66292
弓	-9.66295
ないのか	-9.66296
―――	-9.66373
平気	-9.66379
開	-9.66391
食事	-9.66449
射	-9.66466
行きます	-9.66481
▁少し	-9.66516
取って	-9.66535
つけて	-9.66536
生き	-9.66548
円	-9.66582
投げ	-9.66699
敵の	-9.66733
しかも	-9.6674
ダー	-9.6675
運	-9.66759
▁グ	-9.66768
どうしても	-9.66841
だったんだ	-9.66846
なこと	-9.66911
ップ	-9.67002
見せて	-9.67028
はしない	-9.67037
でしたか	-9.67055
▁ふん	-9.67089
云う	-9.67092
くっ	-9.67138
教え	-9.67403
ーん	-9.67416
太郎	-9.67433
ロン	-9.67606
ゥ	-9.67638
精霊	-9.67642
おいて	-9.67727
食い	-9.67817
しく	-9.67832
▁あなたは	-9.67851
コレ	-9.67861
ぁっ	-9.67894
特に	-9.68204
装	-9.68206
探	-9.6825
▁早く	-9.68273
ヤツ	-9.68318
アイツ	-9.68384
移動	-9.68443
!!!!	-9.68495
恥ずかしい	-9.68496
買って	-9.68511
をしている	-9.68519
の方は	-9.68601
枚	-9.68601
責任	-9.68704
▁お兄ちゃん	-9.68718
次第	-9.68777
ける	-9.68799
務	-9.68974
昔	-9.69024
筋	-9.69172
戦う	-9.6923
何処	-9.69238
ゝ	-9.69268
わたしが	-9.69284
シン	-9.69285
使う	-9.69343
くなる	-9.6938
影	-9.69453
ということは	-9.69482
ませんよ	-9.69742
ことはない	-9.69744
やす	-9.6975
格	-9.69785
の人	-9.69806
今度は	-9.69812
あー	-9.69833
飛び	-9.69905
反応	-9.69909
7	-9.69956
決して	-9.70028
というわけ	-9.70094
後は	-9.70142
ォ	-9.70171
相手に	-9.70176
でもない	-9.7018
の為に	-9.70199
▁はいはい	-9.70209
楽しい	-9.70253
系	-9.70272
第	-9.70291
ぶっ	-9.70295
っていうか	-9.70314
▁みんな	-9.70341
余裕	-9.70366
出た	-9.7055
ていた	-9.70664
想像	-9.70851
色々と	-9.70868
坊	-9.7087
違います	-9.70956
宝	-9.71033
▁君は	-9.71128
売	-9.71256
時代	-9.71268
ここから	-9.7128
きます	-9.71334
ですし	-9.71349
バル	-9.7136
まって	-9.7143
彼の	-9.71484
妾	-9.71533
ないし	-9.7157
込んだ	-9.71593
ただの	-9.71714
別の	-9.71727
んか	-9.71747
▁ねぇ	-9.71753
いれば	-9.71758
扱い	-9.71828
言ってた	-9.71833
軽	-9.71834
ぷ	-9.71875
完全に	-9.71918
あら	-9.71952
そんなことを	-9.71997
学園	-9.72005
たくさん	-9.7202
にいる	-9.72027
今日の	-9.72027
なって	-9.72048
あなたに	-9.72095
いけない	-9.72127
具	-9.72148
間違い	-9.72189
んなら	-9.72237
▁そうね	-9.72327
手に	-9.72331
▁今の	-9.72418
級	-9.72424
なかったの	-9.72426
打	-9.72464
カン	-9.72482
オー	-9.72538
安心	-9.72553
使え	-9.7262
迷惑	-9.72696
見える	-9.72737
にならない	-9.72831
残念	-9.72929
岡	-9.72933
って事	-9.72978
▁わたし	-9.73011
状態	-9.73017
▁とにかく	-9.73102
▁本当	-9.7312
だったな	-9.73212
もなく	-9.73221
ガン	-9.73247
人物	-9.73274
あげ	-9.73285
キャ	-9.73287
気を	-9.73315
経	-9.73422
各	-9.73449
関	-9.73451
飲み	-9.73486
わっ	-9.73625
▁全く	-9.73693
おっ	-9.73704
銀	-9.73754
んのか	-9.738
次の	-9.73805
マスター	-9.73827
たちは	-9.73859
源	-9.73882
かも知れない	-9.73885
江戸	-9.7389
方は	-9.73947
▁うわ	-9.741
距離	-9.74116
早速	-9.74136
欲	-9.74158
二十	-9.74224
細	-9.74262
可能	-9.74321
すごく	-9.74414
協力	-9.74437
たか	-9.74461
ゆっくり	-9.74505
加	-9.74592
G	-9.74598
やってる	-9.74604
8	-9.7466
▁すみません	-9.74678
ないぞ	-9.74687
させた	-9.74735
造	-9.74789
王国	-9.74819
わかりました	-9.74887
まったく	-9.74917
カル	-9.74993
まずは	-9.75027
艦隊	-9.75031
皆さん	-9.75056
そもそも	-9.7506
奴隷	-9.7509
という事	-9.75106
毛	-9.75317
許可	-9.75336
の中	-9.75343
伝え	-9.75344
回復	-9.75348
あの子	-9.754
▁どうも	-9.75428
しまって	-9.75503
サイ	-9.75553
タイ	-9.75564
飛	-9.75575
いろいろ	-9.75605
気がする	-9.75613
るべき	-9.75649
にでも	-9.75655
使	-9.75706
友	-9.75736
するから	-9.7574
んや	-9.75764
ようです	-9.75887
▁そういうこと	-9.75901
お前も	-9.75909
マジ	-9.75927
遣	-9.76008
言われた	-9.76042
防	-9.76052
っていた	-9.76125
随分	-9.76245
図	-9.76254
▁小	-9.76262
さすがに	-9.76298
▁まずは	-9.76328
速	-9.76365
ひどい	-9.76371
▁どうぞ	-9.76449
視	-9.7649
保	-9.76516
制	-9.76537
折	-9.76569
そいつ	-9.76625
達は	-9.76633
エルフ	-9.76638
ってことは	-9.76734
マル	-9.76737
珍しい	-9.76801
ニア	-9.76823
少	-9.76859
俺と	-9.76862
にお	-9.76913
わり	-9.76931
ぢや	-9.76995
目の	-9.77011
又	-9.77039
今回の	-9.77046
になっている	-9.77132
カイ	-9.77223
勝ち	-9.7726
ダンジョン	-9.77289
落ち着いて	-9.77291
けどね	-9.77307
父さん	-9.77312
最後の	-9.77314
ほんと	-9.77409
してきた	-9.77424
話が	-9.77452
まま	-9.77492
どうせ	-9.77551
始め	-9.77586
もう一度	-9.77594
なのだ	-9.77609
変態	-9.77652
いなかった	-9.7766
▁真	-9.77727
じゃなかった	-9.77787
居た	-9.77808
らせて	-9.77818
▁俺も	-9.77829
モノ	-9.77886
ーーー	-9.77915
っぽい	-9.77931
お前に	-9.78043
神様	-9.78089
ランク	-9.78094
大事な	-9.78171
様子	-9.78181
聞きたい	-9.78393
直接	-9.78393
越	-9.784
普通の	-9.78421
▁カ	-9.7851
作り	-9.78533
効果	-9.78534
▁——	-9.78543
うっ	-9.786
乱	-9.78727
呼び	-9.78735
中の	-9.7878
捨て	-9.78786
都合	-9.78801
うちに	-9.7883
知り合い	-9.78901
申し	-9.78928
▁エ	-9.78942
私には	-9.78969
そんなの	-9.7897
連れ	-9.78986
多い	-9.79009
やっと	-9.79012
候	-9.79036
判断	-9.7905
▁そろそろ	-9.79134
を使う	-9.79203
契約	-9.79286
後に	-9.79295
くなって	-9.79434
までは	-9.79438
護	-9.79447
するんだ	-9.79505
庭	-9.79673
はあ	-9.79709
上手く	-9.79738
ばか	-9.79764
納得	-9.79798
いたします	-9.79828
思	-9.7984
流石に	-9.79914
が多い	-9.79923
あの人	-9.79939
ブル	-9.79958
けて	-9.79969
節	-9.80043
大丈夫ですか	-9.80063
抜け	-9.80087
怖	-9.8009
追	-9.80099
収	-9.80198
▁待て	-9.8023
斬	-9.8026
さて	-9.80267
くれて	-9.80285
写真	-9.80293
魔族	-9.80454
フェ	-9.80489
工	-9.80512
狼	-9.80554
岩	-9.80555
いいけど	-9.8056
一日	-9.80618
将軍	-9.80635
▁御	-9.80657
してない	-9.80671
立つ	-9.80778
紅	-9.80794
損	-9.80806
ドラゴン	-9.8081
病気	-9.80822
シル	-9.80897
でござる	-9.80917
コー	-9.8093
ことになる	-9.81044
雲	-9.81067
こっちの	-9.81127
が一番	-9.81178
もらえる	-9.812
遠慮	-9.81304
なさる	-9.81324
手紙	-9.81369
▁先生	-9.8137
そうですか	-9.81384
見えない	-9.81403
しょ	-9.81425
アイ	-9.81529
思って	-9.81659
とやら	-9.81672
の間	-9.81769
んだよね	-9.81775
炎	-9.81824
鍵	-9.8184
だなんて	-9.81961
わけじゃない	-9.82001
悪かった	-9.82049
本気で	-9.82117
構わない	-9.82118
るように	-9.82125
言ってる	-9.82129
▁嘘	-9.82182
▁ごめんなさい	-9.82204
メイ	-9.82209
みた	-9.82227
雷	-9.82334
よろしくお願いします	-9.82373
であった	-9.82412
絶	-9.82444
かえ	-9.82459
焼き	-9.82471
まずい	-9.82497
志	-9.82572
咲	-9.82581
お茶	-9.82602
試合	-9.82642
静	-9.8266
ときに	-9.82908
ないわ	-9.82908
考える	-9.82977
になるの	-9.82989
ひゃ	-9.83008
あるの	-9.83124
残り	-9.8314
ここにいる	-9.83192
柄	-9.83199
たる	-9.83228
▁はーい	-9.83253
兄貴	-9.83273
話す	-9.83302
寝て	-9.83463
▁ちっ	-9.83497
どっち	-9.83561
入る	-9.83582
開始	-9.837
例の	-9.83758
▁敵	-9.83824
都	-9.83849
クス	-9.83867
住	-9.8387
晩	-9.83897
おお	-9.83929
といい	-9.8393
計画	-9.83936
女王	-9.83941
のない	-9.83961
類	-9.84103
するな	-9.84115
覚	-9.84219
行くぞ	-9.84242
将	-9.84255
でしたら	-9.84293
ルド	-9.84299
字	-9.84386
辺	-9.84423
盾	-9.84437
罰	-9.84461
▁あと	-9.84484
▁【	-9.84535
▁お前が	-9.8465
いいんですか	-9.8469
脳	-9.84724
作った	-9.8485
任	-9.84869
滅	-9.8489
状	-9.84938
園	-9.84967
槍	-9.84968
すべて	-9.85025
攻め	-9.85027
だめ	-9.85065
んですよね	-9.85105
▁分かった	-9.85111
かれ	-9.85123
最初から	-9.85157
言えば	-9.85174
鳴	-9.85203
つもりだ	-9.85248
卿	-9.85261
案	-9.85269
奪	-9.8528
のでしょう	-9.85299
に入る	-9.85376
思った	-9.8544
ミー	-9.8545
盗	-9.85489
なっ	-9.85513
遊び	-9.85523
休	-9.85528
となると	-9.85538
仕方	-9.85558
やがった	-9.85639
強く	-9.85654
過	-9.85683
後ろ	-9.85697
精	-9.85737
善	-9.85782
やがる	-9.85785
人間の	-9.85795
信用	-9.858
注意	-9.85805
東京	-9.85845
▁どこ	-9.85892
半分	-9.85895
▁さっき	-9.85938
湯	-9.85959
記	-9.85989
召喚	-9.86061
▁今は	-9.86061
そこの	-9.86079
クラス	-9.86177
危	-9.86204
については	-9.86219
なにを	-9.86308
ものが	-9.86309
らぬ	-9.86357
していない	-9.86403
める	-9.86405
わし	-9.86414
▁──	-9.86415
いつでも	-9.86463
▁えーと	-9.865
司	-9.86501
去	-9.8653
お腹	-9.86531
密	-9.86539
如何	-9.86598
R	-9.86604
悠	-9.86604
儂	-9.86609
▁うるさい	-9.86612
イル	-9.86816
ご飯	-9.86865
ほう	-9.86865
してやる	-9.869
キミ	-9.86941
屋敷	-9.86961
それじゃあ	-9.86961
会社	-9.87146
の家	-9.8722
河	-9.87235
▁あはは	-9.87316
マジで	-9.87323
ほうが	-9.87367
近く	-9.87374
魂	-9.87426
意識	-9.87431
米	-9.87446
計	-9.87464
m	-9.87472
実に	-9.87504
ワシ	-9.87509
▁おっ	-9.8753
養	-9.87544
いか	-9.87583
を使って	-9.87608
▁新	-9.87622
▁ふーん	-9.87665
▁三	-9.87785
犯人	-9.87805
の娘	-9.87808
▁すごい	-9.87895
振	-9.87963
F	-9.87975
行かない	-9.87996
自信	-9.88005
程度	-9.88009
小さい	-9.88012
リック	-9.88016
ばっかり	-9.8804
になったら	-9.8808
▁イ	-9.88131
悪く	-9.88198
▁誰が	-9.88203
由	-9.88219
布	-9.88241
恩	-9.88247
弱い	-9.88257
ないけど	-9.88276
消	-9.88284
者に	-9.88292
言われ	-9.88292
送	-9.88343
失敗	-9.88359
ましたか	-9.88362
飲んで	-9.88396
しま	-9.88404
我々	-9.88406
俺ら	-9.8847
二人とも	-9.88507
理解	-9.88523
竹	-9.88527
借り	-9.88536
▁なん	-9.88567
そなた	-9.88657
じゃねえ	-9.88658
礼	-9.8866
まじ	-9.88733
いいから	-9.88738
紹介	-9.88803
いで	-9.88857
起き	-9.88892
軍の	-9.88926
になりました	-9.8895
のため	-9.89026
▁マ	-9.89034
技術	-9.891
書き	-9.8917
シェ	-9.89194
可能性	-9.8925
遅い	-9.89274
為に	-9.89296
非	-9.89346
i	-9.89357
ようだな	-9.89364
無茶	-9.89431
忘れて	-9.89437
らし	-9.89446
▁リ	-9.89507
挨拶	-9.89557
もので	-9.89568
るのが	-9.89598
箱	-9.89634
クリス	-9.89636
かどうか	-9.89711
暴	-9.89718
ント	-9.89723
ッチ	-9.89726
現実	-9.89767
そう思う	-9.89785
こちらの	-9.89795
荷物	-9.89797
父上	-9.8988
突然	-9.89927
優しい	-9.8998
書いて	-9.89988
京	-9.89989
ましたよ	-9.90001
それと	-9.90004
事情	-9.90111
荒	-9.90149
▁僕	-9.9017
なくなった	-9.90187
※	-9.90201
そうで	-9.90221
▁誰	-9.90224
エン	-9.9025
くなった	-9.90374
オン	-9.90391
せて	-9.90412
儀	-9.90436
それじゃ	-9.90439
頼み	-9.90456
筈	-9.90496
こちらに	-9.90498
の子	-9.90529
大丈夫です	-9.90536
あん	-9.90548
というもの	-9.90689
そう言う	-9.90696
親父	-9.90724
貴女	-9.90725
是非	-9.90742
ドラ	-9.90788
綺麗	-9.90804
が来る	-9.90818
出来た	-9.90822
終	-9.90833
いつか	-9.90852
ところが	-9.9086
のかよ	-9.90948
分かってる	-9.90957
温	-9.91016
脱	-9.91069
屋の	-9.91074
期待	-9.91087
のなら	-9.91092
苦労	-9.9111
▁ちょっ	-9.91123
達が	-9.91249
わない	-9.91251
のことは	-9.9127
ママ	-9.91306
られている	-9.9131
続け	-9.91329
飛んで	-9.91331
お姉さん	-9.91335
内に	-9.91371
らい	-9.91444
わかりません	-9.91471
隠	-9.915
ハッ	-9.9156
ぴ	-9.9158
也	-9.91619
部屋に	-9.91622
なんだって	-9.91627
んじゃないのか	-9.91714
僕に	-9.91724
ガー	-9.91725
走	-9.91741
ものです	-9.91742
かかる	-9.91823
のですよ	-9.91834
散	-9.9186
宗	-9.91879
林	-9.91901
まっ	-9.91914
言いたい	-9.91938
ませぬ	-9.91949
ついた	-9.91952
方がいい	-9.92019
薄	-9.92021
の大	-9.92081
秘	-9.92184
ビー	-9.92193
随分と	-9.92238
▁くそっ	-9.9224
我慢	-9.92282
予	-9.92337
倉	-9.92394
だからね	-9.92398
芸	-9.92456
決め	-9.92468
N	-9.9247
ゾ	-9.92476
同士	-9.92503
▁馬鹿	-9.92503
のさ	-9.92513
疑	-9.92545
起きて	-9.9256
目が	-9.9262
あんなに	-9.92624
▁どんな	-9.9264
掛	-9.9265
殿は	-9.92665
だい	-9.927
ほんとに	-9.92727
そのような	-9.92731
潜	-9.92743
あああ	-9.92756
前から	-9.92828
大好き	-9.92933
張り	-9.92972
かもしれません	-9.92997
リル	-9.9301
之	-9.93033
奴が	-9.93089
知らん	-9.93128
どこで	-9.93186
にゃん	-9.93226
大丈夫だ	-9.93253
▁なぁ	-9.93258
ゆえ	-9.93258
の時	-9.93264
兄ちゃん	-9.93308
無事	-9.9332
旦那様	-9.93328
とする	-9.93346
常	-9.93382
うまく	-9.93445
▁ここで	-9.93556
界	-9.93607
だったのか	-9.93607
と思っている	-9.93614
倍	-9.93634
詳しく	-9.93635
組織	-9.93639
戦力	-9.9364
最	-9.93672
ならん	-9.93702
なんぞ	-9.93761
いずれ	-9.93789
貴方の	-9.93861
かわいい	-9.93873
害	-9.93899
▁あいつ	-9.93913
練習	-9.93929
二人で	-9.93932
変わった	-9.93935
こん	-9.93956
▁そうなの	-9.93967
調べ	-9.93981
を見た	-9.94077
いても	-9.9414
▁サ	-9.94141
呼んで	-9.94161
のもの	-9.94182
も良い	-9.94192
経験	-9.94214
健	-9.94216
ゾンビ	-9.94218
=	-9.94218
現在	-9.94229
ないんだ	-9.94242
があるから	-9.94264
実際	-9.94279
女の	-9.94313
調子	-9.9435
プレイヤー	-9.94351
拙者	-9.94366
▁しかも	-9.94374
人形	-9.94407
▁おはよう	-9.94418
▁ちなみに	-9.94544
ませんでした	-9.94556
恋人	-9.94644
~~	-9.94697
どうするの	-9.94743
田さん	-9.94745
近い	-9.94746
連合	-9.94758
被	-9.94802
の名	-9.9481
未来	-9.94826
手前	-9.94951
立って	-9.94956
わけだ	-9.9496
▁うわぁ	-9.94971
あそこ	-9.94991
▁それだけ	-9.95007
本気	-9.95059
生徒	-9.95089
道具	-9.9515
しょう	-9.95197
ずいぶん	-9.95217
止めて	-9.95251
セン	-9.95328
これ以上	-9.95341
習	-9.95364
会って	-9.95386
ヴ	-9.95417
▁そもそも	-9.95431
おじさん	-9.95439
われ	-9.95458
暗	-9.95463
に入って	-9.95476
ティー	-9.95543
ード	-9.95581
いいですか	-9.95614
調	-9.95647
▁いいから	-9.95661
言わない	-9.95709
ったの	-9.95841
▁そこまで	-9.95842
忙しい	-9.95845
楽しみ	-9.95851
なもの	-9.95855
だろうか	-9.95861
スター	-9.95872
突	-9.95901
まれ	-9.95917
そうだね	-9.95982
っぱ	-9.95984
・・・・・・	-9.95987
持	-9.96018
奴は	-9.96084
美しい	-9.96103
▁もっと	-9.96121
ってことか	-9.96141
そうだけど	-9.96145
▁まず	-9.96152
いたの	-9.96165
▁・・・・・・	-9.96181
だけでも	-9.96207
配	-9.96229
トン	-9.96237
ございます	-9.96251
存	-9.96251
最後	-9.96259
順	-9.9627
甲	-9.96283
安全	-9.96319
▁ガ	-9.96341
ないでしょう	-9.96355
あっち	-9.96368
階	-9.96428
問題ない	-9.96433
第二	-9.96492
わよね	-9.96582
いたのか	-9.96619
ザー	-9.96623
今後	-9.96648
いらっしゃい	-9.96652
デート	-9.96655
▁やった	-9.96686
キュ	-9.96732
ものか	-9.96814
タン	-9.96875
どうしよう	-9.96882
腰	-9.96889
迷宮	-9.96897
逃げて	-9.96943
画	-9.97159
事に	-9.9719
最高	-9.9719
冬	-9.9719
氷	-9.9719
興味	-9.97208
これも	-9.97272
何う	-9.97303
そうして	-9.97326
ようで	-9.97351
こんなこと	-9.97356
相手は	-9.97359
行きましょう	-9.97385
と思うけど	-9.9742
犯	-9.97514
▁ぐっ	-9.97532
満	-9.97549
手が	-9.97557
▁こっち	-9.97568
苦	-9.97603
なんでしょう	-9.97634
だっ	-9.97641
証	-9.9768
売り	-9.977
.....	-9.977
三日	-9.97714
鼻	-9.97725
本人	-9.97786
▁おー	-9.97824
少々	-9.97831
成功	-9.97832
馬車	-9.97857
▁おまえ	-9.97857
ノー	-9.97951
バレ	-9.97962
▁ミ	-9.98026
わしは	-9.98048
永	-9.98081
無し	-9.98104
参加	-9.98171
ディア	-9.9822
せっかく	-9.98223
正直	-9.98227
ゐ	-9.98322
だけの	-9.98408
魔女	-9.98409
の力	-9.9841
ってば	-9.98412
しません	-9.98438
仲良く	-9.98438
金を	-9.98447
心を	-9.98475
ご主人様	-9.98517
付けて	-9.98541
だけです	-9.98549
今すぐ	-9.98651
みる	-9.98686
甘い	-9.98703
牛	-9.98707
呼ぶ	-9.98719
▁これから	-9.98777
機会	-9.98802
当て	-9.98817
たから	-9.98871
君も	-9.9889
ぱ	-9.98894
って何	-9.98942
一緒	-9.98974
-	-9.99006
内容	-9.99023
校	-9.99026
▁やあ	-9.99105
といって	-9.99142
最後に	-9.99148
合う	-9.99177
どれだけ	-9.99236
無駄	-9.99266
亡	-9.99294
したり	-9.99299
▁そう言えば	-9.99371
すら	-9.99399
お前たち	-9.99443
したのは	-9.9946
じゃな	-9.99461
の前で	-9.99527
▁ふふ	-9.9953
送って	-9.99544
方を	-9.99586
▁一体	-9.99598
乃	-9.99633
素材	-9.99637
ミス	-9.99649
▁す	-9.99656
死ね	-9.99689
そうなる	-9.99697
今更	-9.99734
っこ	-9.99752
不思議	-9.99755
大将	-9.99783
戻	-9.99785
▁お前ら	-9.99825
命を	-9.99847
▁そうそう	-9.99852
▁うわっ	-9.99915
護衛	-9.99942
ぺ	-9.99942
列	-9.99943
付	-9.99979
我ら	-9.99986
ギャ	-10.0007
とでも	-10.0007
▁アル	-10.0008
来ない	-10.0008
狩り	-10.0009
ティア	-10.001
したこと	-10.0013
を取り	-10.0018
製	-10.0025
どのような	-10.003
臭い	-10.0031
刻	-10.0032
貴方は	-10.0034
おった	-10.0036
ここの	-10.0045
アリス	-10.0046
恵	-10.0055
吾	-10.0056
いかん	-10.0057
兵器	-10.006
になってる	-10.0061
イヤ	-10.0062
ないわよ	-10.0065
動く	-10.0066
自由	-10.0072
まり	-10.0075
阿	-10.0088
u	-10.0088
過ぎる	-10.0088
の一	-10.0088
騒ぎ	-10.0088
t	-10.0091
科	-10.0092
試	-10.0094
やめろ	-10.0106
なんの	-10.0107
短	-10.0109
偽	-10.0109
9	-10.0111
以外	-10.0114
っていうの	-10.0115
たかった	-10.0117
メイド	-10.0125
遊	-10.0127
たのは	-10.0128
襲	-10.0128
眠	-10.0129
あい	-10.0132
僕も	-10.0132
って言ってた	-10.0137
切って	-10.0137
選	-10.0139
修	-10.0142
真似	-10.0143
なかったら	-10.0144
英雄	-10.0151
▁昨日	-10.0152
降	-10.0153
かなぁ	-10.0156
るような	-10.0158
▁そんなの	-10.0163
先ほど	-10.0165
起きた	-10.0166
▁一応	-10.0171
知ら	-10.0171
吹	-10.0172
できません	-10.0175
王都	-10.0175
そうね	-10.0179
肩	-10.0182
返して	-10.0184
これまで	-10.0186
寝る	-10.0188
子が	-10.0192
それほど	-10.0195
見えて	-10.0196
ますから	-10.0198
案内	-10.0207
にとっては	-10.021
どこまで	-10.0213
コイツ	-10.0214
っても	-10.0217
此の	-10.0219
に行った	-10.0219
フェル	-10.022
を見る	-10.0225
レオ	-10.0229
少しは	-10.0232
了解	-10.0235
たちが	-10.0239
かかって	-10.0239
沢	-10.024
州	-10.0241
純	-10.0245
ないだろう	-10.0249
▁蒼良	-10.0254
君たち	-10.0255
社	-10.026
申	-10.0268
すぎて	-10.0269
U	-10.0277
ほとんど	-10.0277
移	-10.0277
ついでに	-10.0279
▁誰か	-10.0279
とはいえ	-10.0283
▁ハッ	-10.0287
ようだ	-10.0289
お嬢さん	-10.0289
なさいよ	-10.0292
救	-10.0292
ヴァ	-10.0294
▁そうだね	-10.03
背	-10.0303
津	-10.0305
限	-10.0308
リス	-10.0312
社長	-10.0313
▁神	-10.0321
してるの	-10.0323
に出	-10.0325
理由は	-10.033
歩いて	-10.0331
ぼく	-10.0334
かっ	-10.0339
トル	-10.0339
跡	-10.034
雑	-10.034
入った	-10.0341
信じて	-10.0341
郷	-10.0341
勝利	-10.0343
沢山	-10.0347
再	-10.0349
らせ	-10.0349
伊	-10.0356
って言って	-10.0357
一本	-10.0358
くら	-10.0358
何だか	-10.0361
が出る	-10.0362
感謝	-10.0363
発見	-10.0364
恥	-10.0371
値	-10.0372
虎	-10.0374
チーム	-10.0374
討伐	-10.0374
詳しい	-10.0374
と思っていた	-10.0374
構いません	-10.0374
のでは	-10.0375
人で	-10.0387
あたしの	-10.0394
上に	-10.0398
▁オ	-10.0403
譲	-10.0406
化け物	-10.0409
どう思う	-10.041
焼	-10.0412
バン	-10.0415
付き合って	-10.0416
身を	-10.0417
やがって	-10.0418
料	-10.0421
たま	-10.0421
を連れて	-10.0423
撃ち	-10.0429
江	-10.0437
博士	-10.0439
方の	-10.0443
足り	-10.0443
あれば	-10.0447
忍	-10.0448
どこから	-10.0448
ったり	-10.0448
嬢	-10.0453
方向	-10.0453
諦め	-10.0458
行こうか	-10.0465
テン	-10.0466
行か	-10.047
▁フ	-10.0473
▁悪い	-10.0474
ならない	-10.0474
得意	-10.0475
陸	-10.0475
▁どうだ	-10.0475
隠し	-10.0477
まだまだ	-10.048
なにも	-10.0481
晴	-10.0482
s	-10.0483
ウス	-10.0486
その後	-10.0488
名前は	-10.0489
にした	-10.0492
そちら	-10.0498
人生	-10.0501
探し	-10.0502
において	-10.0503
▁こちら	-10.0507
っちゃった	-10.0509
グル	-10.0511
爺	-10.0512
構	-10.0513
ちゃって	-10.0514
どれ	-10.0515
仕事を	-10.0523
りません	-10.0528
こっちに	-10.0534
しなさい	-10.0538
じゃないよ	-10.0539
に来て	-10.054
伯爵	-10.0544
ですからね	-10.0546
甘	-10.0547
いいな	-10.0555
祭	-10.0556
違	-10.056
みろ	-10.0562
姫様	-10.0564
なれば	-10.0567
ックス	-10.0569
勇	-10.0572
恐れ	-10.0572
精神	-10.0574
察	-10.0578
もあります	-10.0584
るんだよ	-10.0584
予想	-10.0589
わからん	-10.0592
ありました	-10.06
のご	-10.0606
駄目だ	-10.0606
怪しい	-10.0616
だったか	-10.0616
合わせ	-10.0617
喜んで	-10.062
買	-10.062
されました	-10.0624
一体何	-10.0626
チェ	-10.0632
お待ち	-10.0637
可	-10.064
口を	-10.0645
これだけ	-10.0646
言い方	-10.0655
アラ	-10.0655
▁...............	-10.0655
届け	-10.0656
率	-10.0657
まった	-10.066
大学	-10.0665
どっか	-10.0667
警戒	-10.0668
考えた	-10.0668
に対する	-10.067
とお	-10.0671
奥さん	-10.0672
ここへ	-10.0674
くれないか	-10.0675
帝国	-10.0679
子ちゃん	-10.068
ぐっ	-10.0681
廻	-10.0698
露	-10.0701
戻り	-10.0709
一杯	-10.0709
▁連合	-10.0715
であり	-10.0716
団長	-10.0717
ああああ	-10.0718
投	-10.0719
せめて	-10.0721
文句	-10.0724
会議	-10.0727
今度	-10.0728
主人	-10.0729
を出して	-10.0735
ふふ	-10.074
ぶり	-10.0743
外に	-10.0747
ゃ	-10.0748
送り	-10.0748
みな	-10.0749
だっけ	-10.0749
孫	-10.075
きゃ	-10.075
闇	-10.0751
今回	-10.0755
ふっ	-10.0762
どこへ	-10.0767
待ち	-10.0769
ことで	-10.0771
隣	-10.0774
▁そこ	-10.0777
お店	-10.0777
マリー	-10.078
▁あんな	-10.0782
苦しい	-10.0788
チョ	-10.0792
いらっしゃる	-10.0798
なんでもない	-10.0799
逆に	-10.0799
しまいました	-10.08
素晴らしい	-10.0805
▁ウ	-10.0806
逢	-10.0809
しているの	-10.081
オル	-10.0813
時間が	-10.0815
男の	-10.0821
酔	-10.0824
間に	-10.083
応	-10.0831
椿	-10.0832
栄	-10.0833
どうやら	-10.0833
窓	-10.0835
普段	-10.0835
ング	-10.084
黙	-10.0845
者を	-10.0846
親分	-10.085
できます	-10.0852
まえ	-10.0852
福	-10.0863
寒	-10.0867
調査	-10.0869
いるのは	-10.0871
あくまで	-10.0873
▁さすが	-10.0874
お前達	-10.0874
首を	-10.0874
ワン	-10.0876
聞け	-10.0876
意見	-10.0878
匂い	-10.0878
多く	-10.088
名前を	-10.0881
取った	-10.0882
知れ	-10.0889
統	-10.0892
たちの	-10.0894
男の子	-10.0902
管理	-10.0903
▁今日	-10.0904
聞か	-10.0905
ですかね	-10.091
解決	-10.091
引っ	-10.0916
だと思います	-10.0923
ろうと	-10.0925
なんと	-10.0925
条	-10.0929
▁ス	-10.093
魔法を	-10.0931
るもの	-10.0932
実験	-10.0937
もしかしたら	-10.0937
嫌な	-10.0937
この人	-10.0937
なんだが	-10.094
ぁぁぁ	-10.094
おりました	-10.0943
力が	-10.0946
かり	-10.0949
があるんだ	-10.095
世間	-10.0952
ッス	-10.0953
なった	-10.0953
あげて	-10.0956
あんたが	-10.0957
っすか	-10.0959
はいない	-10.0962
思え	-10.0965
商	-10.0966
言わないで	-10.0968
名を	-10.0969
してくれた	-10.0971
旗	-10.0971
希望	-10.0971
すっかり	-10.0972
▁くそ	-10.0975
無視	-10.0975
たぶん	-10.0975
深い	-10.0977
ありゃ	-10.0979
のほう	-10.0979
疲れた	-10.0982
の事を	-10.0987
どうするんだ	-10.099
▁ははは	-10.0991
大佐	-10.0992
を作る	-10.0994
なければならない	-10.0994
泣き	-10.0995
ひとり	-10.0996
すべき	-10.1003
セイ	-10.1004
〝	-10.1005
どこの	-10.1008
▁先輩	-10.101
プロ	-10.1011
貰って	-10.1011
手段	-10.1012
むしろ	-10.1017
キス	-10.1017
ないな	-10.1019
ユウ	-10.1024
どー	-10.1026
闘	-10.1032
~?	-10.1035
代わりに	-10.1037
来ました	-10.1038
トリ	-10.1038
誤解	-10.104
てきた	-10.1045
ばいい	-10.1047
返す	-10.1056
わい	-10.1057
態度	-10.106
此処	-10.1063
あいつら	-10.1063
逃	-10.1065
に来る	-10.1067
なんですけど	-10.1067
ウン	-10.1067
作る	-10.1071
所に	-10.1072
袋	-10.1074
宜しい	-10.1075
急いで	-10.1075
社会	-10.1077
少年	-10.1078
すでに	-10.1083
件	-10.1084
上の	-10.1086
勝った	-10.109
大きく	-10.109
大丈夫だよ	-10.1091
不安	-10.1094
その時	-10.1094
分け	-10.1095
込	-10.1096
秀	-10.1106
んじゃねえ	-10.1106
したんだ	-10.1106
弥	-10.1108
ぜひ	-10.111
こいつら	-10.1111
タイプ	-10.1111
てくれる	-10.1113
終わって	-10.1113
立派な	-10.1118
の者	-10.1118
ありがとうございました	-10.1119
学生	-10.112
然	-10.1125
も同じ	-10.1126
▁ならば	-10.1127
操	-10.1132
やろ	-10.1133
給	-10.1133
知らなかった	-10.1138
辛	-10.114
休み	-10.114
くそ	-10.1142
喰	-10.1145
たしかに	-10.1145
つもりで	-10.1148
あいつは	-10.115
っちゃう	-10.1154
固	-10.116
狩	-10.1161
しき	-10.1161
いいかな	-10.1175
局	-10.1177
詰	-10.1182
リオ	-10.1182
▁ラ	-10.119
ですわね	-10.1194
テメェ	-10.1195
臣	-10.1195
言うな	-10.1197
おられる	-10.1197
どうでもいい	-10.1197
言える	-10.1212
羅	-10.1213
歴史	-10.1213
幽霊	-10.1213
間違いない	-10.1215
わかっている	-10.1215
大切な	-10.1218
泊	-10.1219
この前	-10.1219
遊んで	-10.1223
いたい	-10.1227
▁どうやら	-10.1231
ルナ	-10.1232
助かる	-10.1234
それこそ	-10.1236
くせに	-10.1237
お父様	-10.1238
ピー	-10.1246
といふ	-10.1247
児	-10.1248
銭	-10.1248
わん	-10.1253
だれ	-10.1256
▁・・・・・	-10.1259
満足	-10.1262
無く	-10.1264
20	-10.1265
だらう	-10.127
輝	-10.127
帰れ	-10.1271
ひっ	-10.1271
じゃないのか	-10.1274
ではありませんか	-10.1279
の仕事	-10.1281
弁	-10.1281
口に	-10.1282
刃	-10.1283
いよいよ	-10.1284
せば	-10.1287
本来	-10.1293
冷	-10.1294
だったから	-10.1294
院	-10.1295
ナイ	-10.1296
やっぱ	-10.13
どうにか	-10.13
其	-10.1301
詩	-10.1302
▁そんな事	-10.1303
われた	-10.1309
友人	-10.1312
してくる	-10.1313
商人	-10.1316
ときは	-10.1324
もうちょっと	-10.1325
どうしたんだ	-10.1328
しておく	-10.1329
用事	-10.1331
あるまい	-10.1333
を持つ	-10.1333
▁なんだと	-10.1333
▁確か	-10.1336
の名前	-10.1337
戦場	-10.1339
何をしている	-10.1342
向け	-10.1343
何度も	-10.1348
彼は	-10.1354
ゴブリン	-10.1354
それでいい	-10.1354
の国	-10.1355
K	-10.1355
やがれ	-10.1356
部長	-10.136
たって	-10.1361
▁それより	-10.1362
食べた	-10.1362
なくなって	-10.1363
人間が	-10.1364
くれない	-10.1365
知りません	-10.1366
なさ	-10.1367
ボー	-10.1368
けどな	-10.137
▁天	-10.1373
お風呂	-10.138
お母様	-10.1387
指揮	-10.1389
V	-10.1389
兵衛	-10.139
▁無理	-10.139
嫌だ	-10.139
本当の	-10.139
美人	-10.1391
ポー	-10.1395
帝	-10.1395
立場	-10.14
▁ほんと	-10.1402
うまい	-10.1402
姉ちゃん	-10.1402
えぇ	-10.1406
お主	-10.1406
巻	-10.141
キー	-10.1415
特別	-10.1418
国家	-10.1418
ちゃんに	-10.142
イー	-10.1423
忠	-10.1424
汝	-10.1425
否定	-10.1426
勇者様	-10.1426
神殿	-10.1427
反対	-10.1427
あげる	-10.1428
辛い	-10.1428
込め	-10.1438
方が良い	-10.1439
おいしい	-10.1442
▁分かりました	-10.1446
んじゃないかな	-10.1447
そういうの	-10.1451
帯	-10.1453
しちゃった	-10.1454
ハン	-10.1454
なんだろう	-10.1455
いると	-10.1456
今回は	-10.1456
接	-10.1456
こちら	-10.1457
ほどの	-10.1458
知り	-10.1458
熊	-10.1461
裸	-10.1461
▁白	-10.1465
ユー	-10.1466
ようですね	-10.1471
▁ふぇ	-10.1472
場所に	-10.1473
けれども	-10.1474
できて	-10.1479
いるから	-10.1483
ようか	-10.1484
示	-10.1491
容	-10.1492
▁なんだよ	-10.1493
禁	-10.1497
アイテム	-10.1497
扉	-10.1497
わかんない	-10.1498
文字	-10.1499
認め	-10.1514
独	-10.1519
▁待って	-10.1521
メン	-10.1527
ドン	-10.1528
御用	-10.1528
いつまで	-10.1529
恐ろしい	-10.1533
負	-10.1537
おっさん	-10.1538
中で	-10.1541
マイ	-10.1544
しまい	-10.1552
っつ	-10.1553
皇	-10.1553
ワー	-10.156
なんですよ	-10.1561
0	-10.1562
どれくらい	-10.1562
の上	-10.1562
回り	-10.1563
様と	-10.1565
もう一つ	-10.1565
塩	-10.1569
小僧	-10.1572
しております	-10.1576
自然	-10.1579
風呂	-10.158
ところに	-10.1585
上がって	-10.1602
クリ	-10.1604
ちょうど	-10.1605
〟	-10.1606
秒	-10.1606
いたんだ	-10.1606
殿の	-10.1608
▁ひっ	-10.1613
おれは	-10.1613
ようと	-10.1614
ウチ	-10.1616
と思うが	-10.1619
▁皆	-10.162
やすい	-10.162
わかってる	-10.1623
上げる	-10.1624
場合は	-10.1625
クル	-10.1625
ぁぁ	-10.163
有希	-10.1631
貴方が	-10.1633
兄上	-10.1637
宅	-10.1657
厳	-10.1657
▁そうなのか	-10.1662
だぁ	-10.1665
エウロパ	-10.1668
幸	-10.1675
蛇	-10.1679
るのに	-10.1682
▁おーい	-10.1685
マリア	-10.1686
決	-10.1689
なくちゃ	-10.1689
そういう事	-10.1691
残って	-10.1692
ましたね	-10.1699
用の	-10.17
戦って	-10.1702
見えた	-10.1703
あの時	-10.1704
▁ええっ	-10.1707
が良い	-10.1714
○	-10.1715
脚	-10.1716
授業	-10.1716
と思いますが	-10.1719
問	-10.1725
でせう	-10.1726
▁うぅ	-10.1729
部下	-10.1732
の件	-10.1736
笑って	-10.1743
だと思って	-10.1745
費	-10.1749
便	-10.1752
イベント	-10.1753
偶然	-10.1753
ごめんね	-10.1754
ですぞ	-10.1762
▁ううん	-10.1766
行くの	-10.1767
重い	-10.1767
ボール	-10.1769
いける	-10.1769
いゝ	-10.1769
るし	-10.1773
▁君	-10.1773
はっきり	-10.1773
おはよう	-10.1779
こりゃ	-10.1781
三十	-10.1788
あたしが	-10.1788
騎士団	-10.1788
ねぇよ	-10.1789
展開	-10.179
属性	-10.1791
聴	-10.1791
▁ふぅ	-10.1796
でしたね	-10.1801
というのか	-10.1813
知る	-10.1818
にしろ	-10.1821
息子	-10.1824
さっきから	-10.1826
圧	-10.1826
庫	-10.1826
綺麗な	-10.1827
▁シ	-10.1829
▁それと	-10.1829
飲む	-10.1829
性格	-10.183
んだって	-10.1832
ござ	-10.1842
メル	-10.1844
るわ	-10.1845
一回	-10.1848
のだろう	-10.1851
死体	-10.1852
したのか	-10.186
▁どういうこと	-10.186
信じ	-10.1862
板	-10.1864
試験	-10.1864
うるさい	-10.1864
盗賊	-10.1864
既に	-10.1865
それより	-10.1871
バイ	-10.1872
自ら	-10.1873
被害	-10.1874
▁お前の	-10.1876
入れて	-10.1877
まわ	-10.1879
なお	-10.188
んっ	-10.1887
お姉様	-10.189
トラ	-10.1893
意外	-10.1894
兄弟	-10.1896
適	-10.1896
ジー	-10.1899
あたしは	-10.1903
のせいで	-10.1903
オイ	-10.1906
天使	-10.1912
データ	-10.1914
▁ふっ	-10.1919
かない	-10.1919
申し訳ない	-10.1927
守り	-10.193
麻	-10.1939
背中	-10.1939
h	-10.1939
仏	-10.1939
織田	-10.1943
ころ	-10.1943
が必要	-10.1946
破壊	-10.1947
が違う	-10.1948
▁それから	-10.1949
強化	-10.1958
取る	-10.1961
たった	-10.1968
何でもない	-10.1968
着替え	-10.197
戦車	-10.1971
部分	-10.1971
ありがと	-10.1972
動か	-10.1973
▁レイ	-10.1974
一生	-10.1975
ハル	-10.1976
みたいです	-10.1976
省	-10.1976
縮	-10.1977
目標	-10.1978
恐	-10.1979
うわ	-10.198
小説	-10.1981
るのも	-10.1981
何ですか	-10.1982
殺して	-10.1983
エス	-10.1984
様な	-10.1984
何て	-10.1984
もんだ	-10.1986
とおり	-10.1989
ステ	-10.199
貰う	-10.1994
までに	-10.1999
彼女は	-10.2
無かった	-10.2003
を見せて	-10.2011
掃除	-10.2015
美味い	-10.2015
戻る	-10.2015
▁二	-10.2017
▁ハ	-10.2023
時間を	-10.2024
置き	-10.2027
出せ	-10.203
無理だ	-10.2033
吐	-10.2033
あんたは	-10.2033
誰に	-10.2034
兄様	-10.2034
▁水	-10.2036
盛	-10.2037
必要な	-10.2039
ディー	-10.2039
何処に	-10.2039
こら	-10.204
徳	-10.205
ましたが	-10.205
豊	-10.2053
卵	-10.2053
ようやく	-10.2053
討ち	-10.2057
▁他の	-10.2058
知った	-10.2061
ごろ	-10.2063
少ない	-10.2063
でもある	-10.2063
の人間	-10.2064
アリ	-10.2066
おけ	-10.2072
わたくしは	-10.2074
相当	-10.2078
てしまった	-10.2079
ですので	-10.208
するつもり	-10.208
ラム	-10.2082
教えてくれ	-10.2087
▁どうせ	-10.2088
我々の	-10.2088
沙	-10.2091
罠	-10.2091
墓	-10.2091
医者	-10.2108
活動	-10.2109
生まれ	-10.2112
空気	-10.2114
せえ	-10.2114
▁おぉ	-10.2116
んじゃないですか	-10.2118
▁そうよ	-10.2119
お客様	-10.212
になったの	-10.2128
価値	-10.213
止	-10.2135
と思うよ	-10.2147
ラス	-10.2151
とり	-10.2151
んだろうな	-10.2153
アップ	-10.2154
やるから	-10.2156
男が	-10.2156
原因	-10.2158
すまん	-10.2158
僕たち	-10.2161
実際に	-10.2162
ジョ	-10.2165
もまた	-10.2167
欠	-10.2172
魔法の	-10.2173
デン	-10.218
に向かって	-10.2181
土地	-10.2182
褒め	-10.2184
の方に	-10.2187
夕	-10.2188
のせい	-10.2189
時期	-10.219
納	-10.219
できれば	-10.219
かた	-10.2198
▁ク	-10.2199
▁はは	-10.22
▁ヒ	-10.2203
いたしました	-10.2206
籠	-10.2206
狐	-10.2206
コーヒー	-10.2206
過去	-10.2207
今夜	-10.2207
ケーキ	-10.2208
変わって	-10.2209
解放	-10.2216
暴れ	-10.2217
申し訳ありません	-10.2222
いつまでも	-10.2223
パーティー	-10.2224
いら	-10.2225
お話し	-10.2232
最初に	-10.2235
遠く	-10.2237
人数	-10.2239
おき	-10.2242
略	-10.2242
妃	-10.2243
L	-10.2245
範囲	-10.2245
わぁ	-10.2247
セル	-10.2247
二人は	-10.2249
平和	-10.225
仕掛け	-10.2257
リーダー	-10.2257
ション	-10.2259
道を	-10.2262
一言	-10.2262
身に	-10.2267
事がある	-10.2269
ダメだ	-10.2272
空間	-10.2273
んでしょうか	-10.2273
お前を	-10.2273
みたいだな	-10.2274
突き	-10.2276
境	-10.2277
も無い	-10.2279
勘	-10.2282
約	-10.2283
相手が	-10.2283
てください	-10.2284
翔	-10.2284
利用	-10.2285
最悪	-10.2287
時の	-10.2291
助かった	-10.2291
じゃありません	-10.2292
r	-10.2295
タル	-10.2298
際	-10.2298
昼	-10.23
負けた	-10.2302
じゃありませんか	-10.2304
主義	-10.2305
いますよ	-10.2305
うえ	-10.2306
未	-10.2309
をもって	-10.231
ますが	-10.2312
サラ	-10.2315
ければ	-10.2316
と申します	-10.2317
興	-10.232
ファン	-10.2321
んだよな	-10.2324
世話	-10.2326
人も	-10.2328
▁バカ	-10.2331
ための	-10.2331
後悔	-10.2334
お礼	-10.2335
使用	-10.2336
テル	-10.2337
の姿	-10.2341
どうかな	-10.2342
殿が	-10.2344
マイン	-10.2345
かけた	-10.2352
てめえ	-10.2359
交渉	-10.2362
諸	-10.2363
差し	-10.2363
厳しい	-10.2365
病院	-10.2365
彼氏	-10.2366
じゃねぇ	-10.2369
だなぁ	-10.2371
地下	-10.2376
するよ	-10.2378
のよね	-10.2383
笑い	-10.2386
言うと	-10.2386
ッシュ	-10.2387
侍	-10.2389
▁へー	-10.2389
ろよ	-10.2391
迷	-10.2393
遅れ	-10.2393
読み	-10.2395
居ない	-10.2397
奥様	-10.2399
システム	-10.2402
政府	-10.2402
聞かせて	-10.2408
以外の	-10.2411
神の	-10.2412
黒い	-10.2416
さら	-10.242
婆	-10.2421
はじめ	-10.2424
んだい	-10.243
即	-10.2438
ハァ	-10.2439
枝	-10.2441
懐	-10.2441
倒	-10.2442
▁おっと	-10.2444
自身	-10.2447
側に	-10.245
さんを	-10.2452
されてる	-10.2454
ユート	-10.2455
このような	-10.246
一年	-10.2461
読んで	-10.2461
段	-10.2471
好み	-10.2473
陰	-10.2474
菜	-10.2477
所で	-10.248
皮	-10.248
尊	-10.2481
糸	-10.2481
鎧	-10.2481
禁止	-10.2481
プリ	-10.2489
お帰り	-10.2491
クレ	-10.2494
見たい	-10.2501
すいません	-10.2503
はいけない	-10.2506
留	-10.2507
あるか	-10.2509
を作って	-10.2509
見ろ	-10.2509
頼んで	-10.2514
球	-10.2516
▁冗談	-10.2517
何をする	-10.2518
H	-10.252
歯	-10.2521
▁かしこまりました	-10.2522
折角	-10.2522
になれ	-10.2524
近くに	-10.2525
▁はいっ	-10.2528
ッッ	-10.2532
持ってる	-10.2534
奇	-10.2535
なんじゃ	-10.2535
事で	-10.2536
いかない	-10.2537
踏み	-10.2539
船長	-10.254
ねえよ	-10.2546
チン	-10.2546
野さん	-10.2547
憎	-10.2548
ぎゃ	-10.2549
説	-10.2549
考えている	-10.2551
討	-10.2555
なきゃいけない	-10.2555
いだ	-10.2559
航	-10.2561
至	-10.2564
大事	-10.2566
うぅ	-10.2569
仕方がない	-10.257
置	-10.2573
▁お姉ちゃん	-10.2575
を受け	-10.2576
少女	-10.2576
威	-10.2577
カラ	-10.2581
さい	-10.2592
棒	-10.2599
俺達は	-10.2601
隙	-10.2601
議	-10.2602
商売	-10.2602
たまえ	-10.2604
魔術師	-10.2604
変わり	-10.2606
慣れ	-10.2607
らしく	-10.2613
凄く	-10.2616
とんでもない	-10.2616
マシ	-10.262
照	-10.2621
アホ	-10.2624
悪くない	-10.2626
以外に	-10.2627
交	-10.263
▁アンタ	-10.2631
▁それとも	-10.2631
そうなんだ	-10.2632
作業	-10.2634
わしの	-10.2637
縛	-10.2641
探偵	-10.2641
がね	-10.2641
ってくれ	-10.2644
致します	-10.2648
てくる	-10.2649
▁ダメ	-10.265
思い出	-10.2651
戻って	-10.2651
来たの	-10.2652
わたしたち	-10.2662
あんたの	-10.2663
座って	-10.2667
▁ふふふ	-10.2668
ここを	-10.2668
▁ただいま	-10.267
さない	-10.2676
無礼	-10.268
売って	-10.2681
易	-10.2681
頭が	-10.2681
巡	-10.2682
貫	-10.2682
さらに	-10.2683
しなかった	-10.2684
言われる	-10.2685
妙な	-10.2687
わず	-10.2687
のところ	-10.269
しゅ	-10.269
教会	-10.2691
さすが	-10.2692
都市	-10.2696
実力	-10.2698
物は	-10.2698
スバル	-10.2705
殺した	-10.2707
と思ってる	-10.2708
るって	-10.2715
▁そりゃあ	-10.2717
があるのか	-10.2718
すっ	-10.2721
鏡	-10.2721
ちょうだい	-10.2722
逃げろ	-10.2723
はどうだ	-10.2726
任務	-10.2727
父親	-10.2727
に関しては	-10.273
見れば	-10.273
にくい	-10.2732
殺された	-10.2732
かく	-10.2736
テー	-10.274
達の	-10.2744
賭け	-10.2744
による	-10.2752
例	-10.2758
登	-10.2759
人たち	-10.276
▁あん	-10.2761
00	-10.2762
▁こいつ	-10.2763
g	-10.2763
報酬	-10.2763
酷	-10.2764
油断	-10.2764
寒い	-10.2765
努力	-10.2765
賢	-10.2766
母親	-10.2767
魔法使い	-10.2771
アッ	-10.2775
ふん	-10.2776
られました	-10.2777
王様	-10.2779
あげた	-10.2785
なんですね	-10.2786
越え	-10.2786
これって	-10.2786
▁いつも	-10.2791
ないのに	-10.2792
やん	-10.2792
ホントに	-10.28
群	-10.2803
幕	-10.2804
延	-10.2804
ヲ	-10.2805
その辺	-10.2805
オレは	-10.2814
▁いえいえ	-10.2815
▁貴方	-10.2816
続けて	-10.2816
してるんだ	-10.2816
言わ	-10.282
フォ	-10.2831
かれて	-10.2834
ユイ	-10.2835
ダイ	-10.2838
好きだ	-10.2838
詰め	-10.284
どういう意味	-10.2842
あとは	-10.2843
▁次は	-10.2844
ほっ	-10.2844
そっか	-10.2844
どういうことだ	-10.2844
浅	-10.2844
いらない	-10.2845
載	-10.2845
▁明日	-10.2848
はどうした	-10.2848
具合	-10.2849
ちゃんも	-10.285
郎	-10.2851
の部屋	-10.2853
上手	-10.2859
しましょうか	-10.286
も一緒に	-10.2862
人と	-10.2869
与	-10.2874
グラ	-10.2875
ウェ	-10.2877
イチ	-10.2877
問題は	-10.2877
党	-10.2885
迫	-10.2886
焦	-10.2886
かも知れません	-10.2887
ひょっとして	-10.2887
塔	-10.2887
見た目	-10.2889
困った	-10.289
静かに	-10.2893
▁ぎゃ	-10.2896
続き	-10.2899
が欲しい	-10.2909
君と	-10.2911
るけど	-10.2912
周	-10.2916
の為	-10.2918
真実	-10.292
返事	-10.2926
乳	-10.2928
離れて	-10.2928
池	-10.2928
到着	-10.2929
襲撃	-10.293
でございますか	-10.2931
でござります	-10.2931
というと	-10.294
d	-10.2942
ゅ	-10.2944
は今	-10.2948
l	-10.2951
となる	-10.2951
大体	-10.2951
避け	-10.2954
弟子	-10.2959
んでいる	-10.296
30	-10.2961
風に	-10.2964
フリー	-10.2965
っていうのは	-10.2965
合わせて	-10.2966
離れ	-10.2968
すんな	-10.2969
印	-10.2969
けた	-10.2971
お客さん	-10.2973
きょう	-10.2975
▁当然	-10.2976
るだけ	-10.2979
そら	-10.2987
頭を	-10.2988
意味が	-10.299
レス	-10.2991
のみ	-10.2998
▁どういうことだ	-10.2999
顔が	-10.2999
しね	-10.2999
しょうがない	-10.2999
爺さん	-10.2999
のではないか	-10.3003
▁日本	-10.3007
るなよ	-10.301
雄	-10.3011
智	-10.3011
灯	-10.3012
虚	-10.3012
夫婦	-10.3012
レッド	-10.3015
太陽	-10.302
取れ	-10.3022
なりません	-10.3023
言っていた	-10.3033
子は	-10.3034
子ども	-10.3037
はははは	-10.3039
なかったのか	-10.304
分かりました	-10.3043
お酒	-10.3045
拝	-10.3047
勝つ	-10.3048
鹿	-10.3052
算	-10.3052
規	-10.3053
ないこと	-10.3053
アメリカ	-10.3054
出来て	-10.3062
言えない	-10.3065
しようか	-10.3066
大丈夫なの	-10.3073
往	-10.3075
とっても	-10.3079
じゃねぇか	-10.3084
謝	-10.3085
許して	-10.309
▁おはようございます	-10.3093
始末	-10.3096
昨夜	-10.3097
高校	-10.3099
の間に	-10.3101
奴だ	-10.3102
まア	-10.3102
そうですが	-10.3105
▁今度は	-10.3106
▁多分	-10.3107
いますか	-10.3107
であれば	-10.3108
彼等	-10.3112
のことだ	-10.3113
話した	-10.3115
しながら	-10.3116
いかが	-10.3124
中々	-10.3132
を取って	-10.3132
最初の	-10.3133
心が	-10.3134
いるか	-10.3134
の世界	-10.3134
リング	-10.3134
日本の	-10.3136
キリ	-10.3137
流れ	-10.3138
自慢	-10.3138
クト	-10.314
いち	-10.314
▁誰だ	-10.3141
男子	-10.3142
▁兄さん	-10.3143
を殺す	-10.3147
わたくしの	-10.3147
▁コ	-10.3148
そば	-10.3154
ならぬ	-10.3154
足を	-10.3156
いただけ	-10.3163
そんなもの	-10.3165
いてくれ	-10.3169
ロイ	-10.3175
どん	-10.3175
行きたい	-10.3177
奏	-10.318
ーッ	-10.3181
はずです	-10.3181
開け	-10.3182
ウル	-10.3183
馬鹿な	-10.3184
ロウ	-10.3186
どうなって	-10.3186
ってやつ	-10.3187
家を	-10.3188
▁こら	-10.3192
殺せ	-10.3194
なくていい	-10.3197
様を	-10.3199
お友達	-10.3207
赤い	-10.3207
輪	-10.3219
一気に	-10.3222
規模	-10.3224
中央	-10.3224
ああああああああああああああああ	-10.3225
の下	-10.3225
のまま	-10.3228
キング	-10.3229
上げて	-10.323
に乗って	-10.3233
果	-10.3239
方に	-10.3239
驚いた	-10.3242
いるんですか	-10.3245
やりたい	-10.3247
しさ	-10.3248
ともかく	-10.3248
出発	-10.3251
この世界	-10.3252
生命	-10.3254
紀	-10.3265
動物	-10.3266
頂戴	-10.3267
丁度	-10.3267
明け	-10.3268
すまない	-10.3273
云って	-10.3276
ところを	-10.3282
ちょっと待って	-10.3284
大変だ	-10.3287
して下さい	-10.3293
どうだった	-10.3296
を知っている	-10.3298
復	-10.3305
▁陛下	-10.3306
導	-10.3306
ルイ	-10.3306
敬	-10.3307
間違って	-10.3308
麗	-10.3309
彼ら	-10.3309
旧	-10.3309
情報を	-10.3317
▁このまま	-10.3317
てた	-10.3318
汚	-10.3322
働き	-10.3325
んだぜ	-10.3327
もらいたい	-10.3327
なんですが	-10.333
変わらない	-10.3332
我々は	-10.3333
が好き	-10.3334
トロ	-10.3335
により	-10.3337
それ以上	-10.334
おそらく	-10.3342
スタ	-10.3343
会う	-10.3344
ーーーー	-10.3346
自分は	-10.3349
気をつけて	-10.3349
皇帝	-10.3351
下手	-10.3351
ご存知	-10.3353
農	-10.3353
警備	-10.3353
周囲	-10.3353
運動	-10.3356
変わる	-10.3357
そんな事を	-10.3359
を引き	-10.3361
つけた	-10.3363
ないんですか	-10.3365
るんです	-10.3367
▁今まで	-10.3373
ことです	-10.3373
かれた	-10.3379
るなんて	-10.3381
といえば	-10.3382
▁―――	-10.3382
降り	-10.3386
ハー	-10.3392
言ってくれ	-10.3393
集中	-10.3393
梅	-10.3396
]	-10.3396
ありがたい	-10.3396
ァッ	-10.3399
代わり	-10.3404
ランド	-10.3405
々しい	-10.3405
てい	-10.3407
▁どうする	-10.3409
求め	-10.3413
貴様は	-10.3414
わる	-10.3414
としての	-10.3415
会長	-10.3415
▁いやぁ	-10.3418
われて	-10.3424
でない	-10.3426
受	-10.3428
達に	-10.3428
エー	-10.3432
もらえ	-10.3434
▁あなたが	-10.3435
混	-10.3435
あとで	-10.3436
緊張	-10.344
謎	-10.344
機械	-10.344
攻略	-10.344
体を	-10.3443
素敵	-10.3452
行くか	-10.3456
元々	-10.3458
ジン	-10.3459
見つけた	-10.346
よりは	-10.3465
貰った	-10.3467
通信	-10.347
返し	-10.347
何と	-10.3478
へ行って	-10.3479
られます	-10.3479
像	-10.3479
困	-10.3479
▁ご主人様	-10.3481
と言う事	-10.3481
先生は	-10.3481
めた	-10.3482
劇	-10.3483
(・)	-10.3484
落ち着け	-10.3484
副	-10.3487
▁どうか	-10.3488
本物	-10.349
▁いきなり	-10.349
そこは	-10.3491
正解	-10.3491
どなた	-10.3491
願い	-10.3491
機関	-10.3492
▁お父さん	-10.3496
メンバー	-10.3498
声が	-10.35
ヴェ	-10.3503
トー	-10.3504
女が	-10.3507
▁黙れ	-10.3508
世の中	-10.3509
領地	-10.3513
誓	-10.3514
進め	-10.3517
巻き	-10.3523
るわよ	-10.3523
斗	-10.3525
人だ	-10.3525
英	-10.3527
煙	-10.3527
ポイント	-10.3528
ダン	-10.3529
爆発	-10.3529
充分	-10.3529
もありません	-10.3533
が来た	-10.3537
ネット	-10.3539
▁大丈夫か	-10.3542
ルカ	-10.3544
りたい	-10.3545
わたしも	-10.3545
100	-10.3547
どうですか	-10.3555
女は	-10.3559
成長	-10.3564
才	-10.3568
るつもり	-10.3571
[	-10.3572
クエスト	-10.3572
行ってくる	-10.3572
誠に	-10.3574
>・<	-10.3574
全体	-10.3575
沈	-10.358
やります	-10.3583
ホー	-10.3584
遺	-10.3587
となって	-10.3589
あたしも	-10.3592
怒り	-10.3592
て下さい	-10.3595
言っても	-10.3596
母上	-10.3597
▁ギャ	-10.3599
としたら	-10.3599
それまで	-10.3599
言われて	-10.3602
▁他に	-10.3604
長く	-10.3607
てえ	-10.3607
おっしゃる	-10.361
姿を	-10.361
生きている	-10.361
大丈夫なのか	-10.3615
コウ	-10.3615
とかいう	-10.3616
蓮	-10.3616
知識	-10.3617
告白	-10.3618
今日も	-10.3619
なんなの	-10.3619
勝てる	-10.3623
怒って	-10.3627
ははははは	-10.363
する気	-10.363
調べて	-10.3632
▁こんにちは	-10.3633
▁美	-10.3634
▁勿論	-10.3635
他にも	-10.3637
昨日の	-10.3642
てしまう	-10.3643
って感じ	-10.3644
つける	-10.3647
の戦い	-10.365
たけど	-10.366
あああああ	-10.366
廃	-10.3661
糞	-10.3661
の準備	-10.3661
監視	-10.3662
あちら	-10.3662
少佐	-10.3662
小さな	-10.3663
将来	-10.3666
長官	-10.367
可愛	-10.367
心配して	-10.3673
途中	-10.3674
改	-10.3677
抜き	-10.3677
てめぇ	-10.3678
を持っている	-10.3682
ホント	-10.3683
生きてる	-10.3685
機体	-10.3686
▁やめろ	-10.3687
いいんだ	-10.369
キャラ	-10.3691
▁キャ	-10.3694
当たり前	-10.3699
並	-10.3701
事だ	-10.3704
練	-10.3705
府	-10.3705
称	-10.3705
我等	-10.3707
▁金	-10.3707
村の	-10.3713
仮	-10.3716
知らず	-10.3717
▁次	-10.3718
当たり	-10.3718
ソン	-10.3719
ないだろ	-10.3719
亜	-10.3728
▁良い	-10.3731
手の	-10.3731
マス	-10.3732
の言葉	-10.3735
次に	-10.3736
をしていた	-10.3736
仮に	-10.3739
カード	-10.3743
繋	-10.3744
採	-10.3747
遅く	-10.375
撮	-10.375
お世話	-10.3751
大尉	-10.3755
お兄様	-10.3757
お聞き	-10.3759
十五	-10.3759
相変わらず	-10.3761
夫人	-10.3763
防衛	-10.3765
伝えて	-10.3767
支	-10.3768
▁お母さん	-10.3768
どういう事	-10.3771
▁そうなんですか	-10.3771
ショ	-10.3772
なのは	-10.3773
突っ	-10.3778
敗	-10.378
先生の	-10.3782
帰った	-10.3784
日に	-10.3786
そのうち	-10.3787
故	-10.379
徒	-10.3791
▁へっ	-10.3794
事も	-10.3794
甲斐	-10.3796
厭	-10.3796
粉	-10.3796
畑	-10.3796
動いて	-10.3796
恐らく	-10.3797
その人	-10.3797
と申す	-10.3797
▁なんと	-10.3798
時点で	-10.3798
ユキ	-10.38
いろ	-10.3803
使えない	-10.3805
▁《	-10.3809
手伝って	-10.3809
オラ	-10.381
聞いたこと	-10.3811
かもな	-10.3815
悲し	-10.3816
いけません	-10.3819
▁きゃ	-10.3826
吹き	-10.3828
かもしれないけど	-10.3829
勝て	-10.383
▁わたしは	-10.3834
白い	-10.3835
腐	-10.3838
希	-10.3838
行くよ	-10.3838
推	-10.3841
唯	-10.3841
完了	-10.3842
結界	-10.3843
田舎	-10.3843
多少	-10.3844
って言ってる	-10.3848
町の	-10.385
ないといけない	-10.3853
勘違い	-10.3854
でしょうが	-10.3856
洗	-10.3857
姉様	-10.3858
そうだが	-10.3863
いますが	-10.3872
食う	-10.3874
来てくれ	-10.3876
エリ	-10.3879
の前に	-10.388
▁そうだよ	-10.388
▁ゆ	-10.3884
通りに	-10.3886
ています	-10.3886
裂	-10.3887
之助	-10.3889
子の	-10.389
お菓子	-10.3892
うる	-10.3895
を殺した	-10.3895
百合	-10.3896
着て	-10.3897
厄介	-10.3898
こっちも	-10.3901
されていた	-10.3901
私たちは	-10.3902
身の	-10.3904
申す	-10.3905
フォー	-10.3906
男は	-10.3906
最初は	-10.3912
からだ	-10.3913
途	-10.3914
やしない	-10.3914
人類	-10.3914
きれい	-10.3914
体が	-10.392
わけではない	-10.3928
補	-10.393
を守る	-10.3931
婚	-10.3932
なア	-10.3933
トイレ	-10.3934
ないです	-10.3934
先生が	-10.3939
さー	-10.394
ほうがいい	-10.3942
んと	-10.3943
其の	-10.3947
になると	-10.3949
怪	-10.395
こいつは	-10.3953
言っている	-10.3959
いいわ	-10.3961
ウィ	-10.3961
つかない	-10.3962
どころ	-10.3962
会った	-10.3966
▁うちの	-10.3968
イズ	-10.3972
▁オレ	-10.3972
自殺	-10.3975
上がり	-10.3975
継	-10.3976
俺には	-10.3979
相手を	-10.3979
〇	-10.3979
浦	-10.3979
こっちは	-10.398
もっとも	-10.3983
ほんとうに	-10.3985
でもいい	-10.3986
一般	-10.3987
の上に	-10.3988
運命	-10.3994
大変な	-10.3994
終わる	-10.3996
決めた	-10.3997
▁すぐに	-10.4
エイ	-10.4003
フラ	-10.4004
余り	-10.4006
なにが	-10.4008
この間	-10.401
にしては	-10.4011
帰ろう	-10.4012
トゥ	-10.4013
押	-10.4017
やってみ	-10.4018
って思って	-10.4019
減	-10.402
っすよ	-10.4022
癖	-10.4023
ポン	-10.4023
床	-10.4024
包	-10.4025
にございます	-10.4033
気になって	-10.4034
だいぶ	-10.4037
ッツ	-10.4038
らねえ	-10.405
行為	-10.4052
の時間	-10.4053
遠い	-10.4054
事態	-10.406
落ちて	-10.4064
子を	-10.4065
令	-10.4065
ジャー	-10.4065
▁ここに	-10.4067
怒	-10.4067
は無理	-10.4072
綱	-10.4072
海賊	-10.4075
クロー	-10.4075
かもしれん	-10.4076
感情	-10.4076
支配	-10.4077
もあった	-10.4082
えた	-10.4082
テスト	-10.4086
▁当たり前	-10.4086
されるの	-10.4087
何より	-10.4088
合って	-10.4089
洋	-10.4091
手伝い	-10.4091
▁もう少し	-10.4095
われる	-10.4105
心の	-10.4105
ーズ	-10.4105
になれる	-10.4107
ケイ	-10.4108
任せて	-10.4108
こうやって	-10.4109
すればいい	-10.4111
あの女	-10.4111
替え	-10.4112
いつから	-10.4114
域	-10.4116
軍人	-10.4117
W	-10.4119
班	-10.4119
霧	-10.4119
y	-10.4119
妖精	-10.4119
突撃	-10.412
ッタ	-10.4121
はっはっは	-10.4121
と言えば	-10.4122
なれ	-10.4122
異常	-10.4123
ひょ	-10.4124
十二	-10.4125
態	-10.4125
相手の	-10.4126
片付け	-10.4127
そこから	-10.4129
カナ	-10.413
▁最近	-10.4135
触	-10.4137
るのよ	-10.4142
あるから	-10.4143
んだけどね	-10.4143
するぞ	-10.4143
名は	-10.4144
ゴー	-10.4145
生物	-10.4146
パーティ	-10.4148
いている	-10.4154
ナン	-10.4155
▁左様	-10.4156
るだろう	-10.4161
関係ない	-10.4165
札	-10.4165
らう	-10.4165
涙	-10.4166
休憩	-10.4166
に入った	-10.4169
▁ちゃんと	-10.417
きみ	-10.4171
言うこと	-10.4173
頼んだ	-10.4176
狙い	-10.4176
付く	-10.4183
積	-10.4184
ないでください	-10.4184
ゆく	-10.4185
切る	-10.4188
待	-10.419
安心して	-10.4192
そうした	-10.4194
身分	-10.4199
お方	-10.4203
の問題	-10.4205
不足	-10.4207
爆	-10.4207
幾	-10.4211
こんなの	-10.4211
も何も	-10.4213
憂	-10.4213
タイミング	-10.4213
消え	-10.4213
応援	-10.4213
それぞれ	-10.4213
天下	-10.4214
でございましょう	-10.4214
ワタシ	-10.4215
きり	-10.4215
許さない	-10.4215
確	-10.4218
カリ	-10.4226
告	-10.4229
第三	-10.423
ライン	-10.4233
買った	-10.4234
危険な	-10.4236
こない	-10.4237
有り	-10.4237
君を	-10.4239
ずつ	-10.4248
蒼良	-10.4249
▁なんだか	-10.4254
時には	-10.4254
▁ぬ	-10.4257
リリー	-10.4259
脅	-10.426
w	-10.4262
アナタ	-10.4263
事故	-10.4263
天才	-10.4264
殺される	-10.4266
だつて	-10.4268
育て	-10.4271
知りたい	-10.4275
たのに	-10.4275
しますか	-10.4281
以	-10.4281
ご苦労	-10.4284
わかります	-10.429
ちょっ	-10.429
というのに	-10.4292
逃げた	-10.4294
きたの	-10.4297
ボン	-10.43
見てる	-10.43
くらいは	-10.43
かす	-10.4301
ナル	-10.4303
ございません	-10.4305
今朝	-10.4306
分かり	-10.4306
じゃろう	-10.4308
劣	-10.4308
しますよ	-10.4311
すこし	-10.4312
だー	-10.4312
ネー	-10.4312
僕を	-10.4314
匹	-10.4317
待つ	-10.4318
昔の	-10.432
リュー	-10.4321
とした	-10.4322
▁彼女	-10.4326
備	-10.4327
聞いている	-10.4331
誘	-10.4331
殿に	-10.4338
来ます	-10.4338
って話	-10.4338
50	-10.4338
吸	-10.4344
舐め	-10.4346
喜	-10.4347
臭	-10.4347
いただき	-10.4347
ってた	-10.4347
そうじゃない	-10.4351
ふぅ	-10.4352
一発	-10.4354
駒	-10.4356
卒業	-10.4356
次郎	-10.4358
どうすればいい	-10.4361
艦長	-10.4362
どういうことですか	-10.4369
君達	-10.4373
▁そっち	-10.4373
みたいで	-10.4375
発生	-10.4376
荷	-10.4377
気にして	-10.4379
バス	-10.4381
なことを	-10.4383
抱き	-10.4387
分から	-10.4388
分かっている	-10.4395
除	-10.44
岸	-10.4402
比	-10.4402
掛けて	-10.4405
完成	-10.4405
に行こう	-10.441
案外	-10.4411
正しい	-10.4416
ノエル	-10.4416
リーナ	-10.4417
いい加減に	-10.442
プル	-10.4421
ええと	-10.4421
エロ	-10.4427
負ける	-10.4433
部の	-10.4435
▁ぶ	-10.4439
内で	-10.4441
呼ば	-10.4442
を持ち	-10.4446
おりません	-10.4447
素直に	-10.445
ったんだ	-10.4451
人気	-10.4452
対象	-10.4453
速度	-10.4454
済む	-10.4455
泣く	-10.4459
好きに	-10.4459
ふう	-10.4461
つもりか	-10.4465
中身	-10.4466
▁いやー	-10.4478
泣いて	-10.4479
注	-10.448
ようなこと	-10.4481
▁結局	-10.4483
を教えて	-10.4484
やられた	-10.4484
三つ	-10.4486
汚い	-10.4486
発言	-10.4489
政治	-10.4489
最低	-10.4491
五十	-10.4491
留守	-10.4492
ペン	-10.4494
コロ	-10.4496
激	-10.4496
額	-10.4497
らなかった	-10.4501
われわれ	-10.4502
▁キ	-10.4502
決めて	-10.4503
いられる	-10.4503
領主	-10.4503
なかったんだ	-10.4509
ができる	-10.4514
おくれ	-10.4514
あれだけ	-10.4514
幾ら	-10.4515
▁父上	-10.452
非常に	-10.4522
隠して	-10.4522
傍	-10.4522
の顔	-10.4522
明日は	-10.4525
他人	-10.4531
渡す	-10.4541
▁黒	-10.4546
癒	-10.4548
豆	-10.4549
ヒーロー	-10.455
具体的に	-10.455
▁やれやれ	-10.455
傭兵	-10.455
踊	-10.4551
そうやって	-10.4552
いこう	-10.4553
兵士	-10.4555
いきます	-10.4556
あの男	-10.4556
歩く	-10.4557
参りました	-10.4558
回って	-10.4559
場で	-10.4562
あなたも	-10.4565
良いの	-10.4566
ゆる	-10.4567
機嫌	-10.4569
異世界	-10.4571
ところは	-10.4572
様も	-10.4573
ということで	-10.4575
▁ですから	-10.4576
何人	-10.4578
開発	-10.4579
不思議な	-10.4579
れている	-10.4579
おおお	-10.4581
わけで	-10.4585
肌	-10.4599
X	-10.4599
そうと	-10.4599
材料	-10.4599
対応	-10.46
の奴	-10.4601
は何も	-10.4602
んだっけ	-10.4602
意外と	-10.4609
どうしたんですか	-10.4609
ああああああ	-10.4609
続ける	-10.4611
メール	-10.4612
はこの	-10.4613
大丈夫ですよ	-10.4617
いわ	-10.4627
▁いま	-10.4627
貴様ら	-10.4632
大した	-10.4638
向き	-10.4638
たしか	-10.4641
快	-10.4645
僕ら	-10.4645
ジョー	-10.4646
パス	-10.4647
典	-10.4648
プレゼント	-10.4648
家は	-10.4653
おれが	-10.4654
ファイア	-10.466
もらおう	-10.4661
たが	-10.4662
になりたい	-10.4665
ぽ	-10.467
つてゐる	-10.4671
と一緒	-10.4671
現場	-10.4673
ガス	-10.4674
▁僕の	-10.4679
▁レ	-10.4679
張って	-10.4681
どうなる	-10.4684
人間は	-10.4684
男性	-10.4685
演	-10.4687
に見える	-10.4687
発動	-10.4688
を受けて	-10.4693
もしも	-10.4697
猿	-10.4697
豚	-10.4697
ベッド	-10.4697
撤退	-10.4698
ロック	-10.4698
襲われ	-10.4699
▁ええと	-10.47
途中で	-10.4703
りと	-10.4704
偉い	-10.4711
かと思った	-10.4718
ゴミ	-10.4719
のほうが	-10.4719
集め	-10.4724
整	-10.473
ったか	-10.4735
先生に	-10.4735
るわけ	-10.4737
―	-10.4742
最も	-10.4743
及	-10.4743
ぶち	-10.4745
創	-10.4747
緑	-10.4747
提案	-10.4747
なのですが	-10.4758
サハラ	-10.4761
りましょう	-10.4761
彼が	-10.4761
云	-10.4767
見事	-10.4768
来てくれた	-10.477
の女	-10.477
に戻	-10.4774
ドル	-10.4777
楽しそう	-10.4779
言われても	-10.478
やっ	-10.4781
▁うお	-10.4782
出てくる	-10.4784
行ける	-10.4786
の仲間	-10.4787
無事に	-10.4787
皆様	-10.4787
かせて	-10.4787
つつ	-10.479
防御	-10.479
隠れ	-10.4791
ゆう	-10.4791
この辺	-10.4793
いたから	-10.4794
漢	-10.4797
封印	-10.4797
大会	-10.4798
転移	-10.4799
決定	-10.4799
雇	-10.4804
ほかに	-10.4808
敷	-10.4808
怒る	-10.4809
こんで	-10.4811
頑張る	-10.4811
もいる	-10.4823
グリ	-10.4825
女神	-10.4826
目で	-10.4828
けん	-10.4829
こんなところで	-10.483
▁わたくし	-10.483
られたら	-10.4832
▁うう	-10.4834
申して	-10.4837
の数	-10.4838
なのね	-10.4839
可能性は	-10.484
ですって	-10.484
▁/><	-10.4842
まん	-10.4842
司令	-10.4844
了	-10.4845
衛	-10.4846
いただきます	-10.4847
っぽ	-10.4847
ステータス	-10.4847
交換	-10.4848
候補	-10.4848
着いた	-10.485
間違いなく	-10.4852
代表	-10.4852
新聞	-10.4852
敵を	-10.4853
お昼	-10.4854
ゐる	-10.4857
尋ね	-10.4858
ったのか	-10.4859
水を	-10.4859
呉れ	-10.4863
旅行	-10.4864
言ったら	-10.4864
▁凄い	-10.4865
アス	-10.4867
聞こえて	-10.4869
ゼル	-10.4871
恋愛	-10.4872
▁“	-10.4874
▁すいません	-10.4875
争	-10.4876
▁セ	-10.4877
筈だ	-10.4877
おか	-10.4878
ブー	-10.4881
が出て	-10.4887
リアル	-10.4887
出来れば	-10.4888
もうすぐ	-10.4891
子に	-10.4893
年前	-10.4895
る事	-10.4897
豪	-10.4897
J	-10.4898
限界	-10.4899
感覚	-10.49
後の	-10.49
地獄	-10.49
私達は	-10.4901
と共に	-10.4901
よくも	-10.4905
に戻る	-10.4905
ぶん	-10.4908
シロ	-10.4908
があったら	-10.491
そうなんですか	-10.4911
といった	-10.4914
この国	-10.4915
いつの間に	-10.4917
やるよ	-10.4918
会話	-10.4922
知ってるの	-10.4923
いっそ	-10.4924
に何か	-10.4931
しちゃ	-10.4932
ミラ	-10.4936
▁私に	-10.4938
のことです	-10.4941
呪い	-10.4944
お仕事	-10.4945
油	-10.4948
手で	-10.4948
k	-10.4948
Y	-10.4949
教育	-10.4949
ることは	-10.495
乗って	-10.4955
どころか	-10.4956
触れ	-10.4958
ナナ	-10.4959
ましい	-10.496
これでも	-10.496
くださいね	-10.4961
わかり	-10.4966
愚	-10.4971
時々	-10.4974
どういう意味だ	-10.4976
本当は	-10.4977
買い物	-10.4978
▁そこで	-10.498
したか	-10.4985
フッ	-10.4987
不満	-10.4989
なんでしょうか	-10.4991
するのか	-10.4991
壊	-10.4993
にゃあ	-10.4995
行けば	-10.4995
いい加減	-10.4995
カタ	-10.4999
バッ	-10.4999
貧	-10.5
貴殿	-10.5
言うなら	-10.5002
いないの	-10.5003
心当たり	-10.5003
ずるい	-10.5007
探して	-10.5008
先程	-10.5009
▁隊長	-10.5009
はどうする	-10.5011
踏	-10.5014
中国	-10.5015
有る	-10.5016
広い	-10.5018
かー	-10.5019
場所を	-10.5021
本部	-10.5021
役目	-10.5024
嘘を	-10.5024
層	-10.5024
低	-10.5025
婚約	-10.5028
タイム	-10.5029
ある程度	-10.5029
良いのか	-10.503
ネル	-10.5031
の連中	-10.5033
みれば	-10.5038
せー	-10.5038
掘	-10.5039
上げた	-10.504
じゃねーか	-10.5042
色の	-10.5044
男に	-10.5044
談	-10.5047
▁我が	-10.5047
せずに	-10.5047
物が	-10.5048
間に合	-10.5048
入れた	-10.5049
杖	-10.5051
そうだろう	-10.5051
映画	-10.5051
生徒会	-10.5053
エミリア	-10.5054
射撃	-10.5057
一寸	-10.5058
尽く	-10.5058
バイト	-10.506
返せ	-10.5062
▁彼	-10.5065
がありません	-10.5068
の様子	-10.5072
おり	-10.5074
共に	-10.5075
以上に	-10.5076
いるのだ	-10.5078
どのくらい	-10.5078
▁だけど	-10.5081
気持ち悪い	-10.5084
お会い	-10.5084
話を聞いて	-10.5086
ビル	-10.5087
コラ	-10.5088
ぁー	-10.5089
室に	-10.5091
脱出	-10.5092
▁いったい	-10.5096
たび	-10.5101
駅	-10.5103
つま	-10.5103
紫	-10.5103
▁お兄様	-10.5103
んじゃねぇ	-10.5106
あるのか	-10.5108
られません	-10.5109
所へ	-10.5109
ショー	-10.5115
一時	-10.5116
去年	-10.5117
いただいて	-10.5118
だったよ	-10.5121
いいぞ	-10.5122
辞	-10.5124
翼	-10.5131
しておいて	-10.5132
なんとなく	-10.5134
なくてもいい	-10.5144
▁えへへ	-10.5146
言葉を	-10.5146
▁ハイ	-10.5148
山の	-10.5149
比べ	-10.515
場に	-10.5151
おきます	-10.5153
賀	-10.5153
是	-10.5154
鶴	-10.5154
抵抗	-10.5154
叫	-10.5154
登録	-10.5155
一旦	-10.5155
ハサン	-10.5155
▁そういや	-10.5161
▁自分の	-10.5171
呪	-10.5174
活	-10.518
試し	-10.5181
くんは	-10.5183
足りない	-10.5183
見たこと	-10.5183
知らせ	-10.5185
辺り	-10.5187
があると	-10.5191
ヒト	-10.5194
スラ	-10.5197
っきり	-10.5197
ライト	-10.5199
いるのですか	-10.5199
みたいだけど	-10.5203
たちに	-10.5204
c	-10.5206
▁グルゥ	-10.5206
叶	-10.5206
☆	-10.5206
凛	-10.5206
位置	-10.5207
便利	-10.5208
多くの	-10.5211
マリ	-10.5213
ワイ	-10.5213
ヒロ	-10.5213
思わ	-10.5213
▁ありがと	-10.5221
ショウ	-10.5224
ませんが	-10.523
こちらへ	-10.523
ねェ	-10.5233
々と	-10.5235
今夜は	-10.5235
のところに	-10.5237
昔から	-10.5239
まれる	-10.5242
ではないですか	-10.5246
妙	-10.5249
決まって	-10.5255
かもね	-10.5256
しなくても	-10.5258
徹	-10.5258
忘れた	-10.5259
確保	-10.5259
しちゃう	-10.5261
乙女	-10.5263
修行	-10.5268
チュ	-10.5271
と云って	-10.5275
敵は	-10.5277
ははは	-10.5278
教室	-10.5278
何かあった	-10.5284
惑星	-10.5286
助けてくれ	-10.5288
▁相変わらず	-10.53
ゲー	-10.53
呼んだ	-10.53
リオン	-10.5304
頂	-10.5304
っているの	-10.5306
捕	-10.5309
上がる	-10.531
似て	-10.531
アキ	-10.5311
舌	-10.5311
を出す	-10.5312
我が国	-10.5314
堪	-10.5314
基地	-10.5315
▁あまり	-10.5317
成り	-10.532
ぉぉぉ	-10.5321
したから	-10.5331
いっしょに	-10.5335
敵が	-10.5335
疲れて	-10.5335
▁ヤ	-10.5336
医	-10.5337
日本人	-10.534
が出た	-10.5342
奴等	-10.5343
プレ	-10.5344
附	-10.5345
ちまった	-10.5345
菓子	-10.5359
は一体	-10.5359
わざと	-10.5361
編	-10.5362
富	-10.5363
持つ	-10.5365
▁ロ	-10.5366
ばかりで	-10.5368
信頼	-10.5368
育	-10.5369
は誰	-10.537
燃え	-10.5371
いいだろう	-10.5373
申し上げ	-10.5373
召	-10.5374
失礼します	-10.5375
▁せっかく	-10.5375
ドレス	-10.5378
とは思って	-10.5384
n	-10.5386
へ行く	-10.5387
▁絶対	-10.5388
低い	-10.5391
誰にも	-10.5392
レア	-10.5394
ふざけ	-10.5394
場所は	-10.5395
おれの	-10.5399
適当に	-10.5404
個人	-10.5405
ってわけ	-10.5415
艇	-10.5416
依	-10.5417
雰囲気	-10.5418
縄	-10.5418
施設	-10.5418
巫女	-10.5418
者達	-10.5418
風邪	-10.542
みたいだ	-10.542
残念ながら	-10.5421
坊主	-10.5423
頑張れ	-10.5426
知らぬ	-10.5426
声を	-10.543
の方へ	-10.5433
よくない	-10.5435
下げ	-10.5435
十年	-10.5435
ナニ	-10.5437
過ぎて	-10.5441
もう一	-10.5442
酒を	-10.5444
離せ	-10.5444
▁彼等	-10.5445
がありました	-10.5446
ぁぁぁぁ	-10.5446
▁やっぱ	-10.5449
▁おかえり	-10.5453
ってきた	-10.5455
両親	-10.5458
何にも	-10.5463
の情報	-10.5471
リリア	-10.5471
牙	-10.5471
厚	-10.5471
を聞いて	-10.5473
底	-10.5473
回収	-10.5474
チャンス	-10.5478
▁今から	-10.5479
パンツ	-10.5481
飛行	-10.5481
公爵	-10.5483
斬り	-10.5483
▁若	-10.5484
をつけ	-10.5484
ということか	-10.5488
ランタン	-10.549
っっ	-10.5494
はともかく	-10.5498
ミナ	-10.55
抜か	-10.5502
どうかした	-10.5504
王女	-10.5505
▁何ですか	-10.5506
▁さすがに	-10.551
体調	-10.5521
検	-10.5523
来たか	-10.5523
瞬間	-10.5524
フル	-10.5525
ロボット	-10.5525
此方	-10.5526
▁なにが	-10.5528
ゆかり	-10.5531
るなら	-10.5535
三年	-10.5535
掴	-10.5536
つぶ	-10.5536
▁おそらく	-10.5538
あれが	-10.5538
ジャン	-10.5538
モテ	-10.554
未だ	-10.554
描	-10.5546
抱	-10.555
邪	-10.5552
みたいですね	-10.5554
その子	-10.5556
この部屋	-10.5557
だからって	-10.5557
いいんじゃない	-10.557
に出て	-10.5572
の本	-10.5574
完璧	-10.5579
雅	-10.5579
治療	-10.5579
担当	-10.558
の日	-10.5581
だらけ	-10.5581
おっぱい	-10.5582
わせて	-10.5582
▁ユ	-10.5583
頂け	-10.5588
生産	-10.5589
何なの	-10.559
時間は	-10.559
いな	-10.5592
何とも	-10.5597
で良い	-10.5599
ーラ	-10.56
叩き	-10.5602
人達	-10.5603
ルト	-10.5607
隠れて	-10.5608
あるけど	-10.561
ようだが	-10.5613
たんですか	-10.5613
始めて	-10.5617
一枚	-10.5617
落ちた	-10.5619
の命	-10.5619
私だって	-10.5623
どうすれば	-10.5623
ほん	-10.5626
おっしゃ	-10.5627
なんだろ	-10.5627
▁女	-10.5629
にいた	-10.563
泳	-10.5631
p	-10.5633
餌	-10.5633
桃	-10.5633
単純	-10.5633
決まり	-10.5634
ないんです	-10.5636
魔力を	-10.5637
三郎	-10.5639
あるんだ	-10.5639
必要がある	-10.5643
の通り	-10.5643
ケン	-10.5648
ますけど	-10.565
攻	-10.5651
が出	-10.5651
いるんです	-10.5653
ァァァ	-10.566
をつけて	-10.5661
わたしに	-10.5663
致	-10.5664
アレン	-10.5665
ああいう	-10.5666
買う	-10.5666
仁	-10.5673
大和	-10.5673
~~~	-10.5675
そうなのか	-10.5678
払い	-10.5678
そっちの	-10.568
があり	-10.5681
】!	-10.5681
よろしいですか	-10.5687
走って	-10.5687
柳	-10.5688
伴	-10.5688
開いて	-10.5688
すげえ	-10.5689
やうな	-10.5691
みると	-10.5693
力で	-10.5693
食って	-10.5696
キン	-10.57
こんなもの	-10.5701
と思ったら	-10.5702
えば	-10.5703
▁ははっ	-10.5711
生きる	-10.5713
▁その通りです	-10.5715
んですから	-10.5718
疲れ	-10.5719
ねーよ	-10.5721
執	-10.5723
▁そうなんだ	-10.5723
確実に	-10.5724
にしか	-10.5729
と思いますよ	-10.573
なのかな	-10.5732
これからも	-10.5732
を頼む	-10.5735
余計な	-10.5735
ております	-10.5735
筆	-10.5736
ばっか	-10.5736
的には	-10.5737
拾	-10.5739
ヶ	-10.574
▁わかってる	-10.574
信じられない	-10.574
鷹	-10.5743
吸血鬼	-10.5743
年齢	-10.5743
食べたい	-10.5744
やばい	-10.5744
突破	-10.5745
義理	-10.5747
親切	-10.5748
天気	-10.5752
すか	-10.5758
妖	-10.5759
建物	-10.5759
ってくる	-10.5759
なります	-10.5765
▁なんじゃ	-10.5767
離して	-10.5769
変化	-10.577
ずる	-10.577
▁高	-10.5773
帰ってきた	-10.5778
想	-10.578
飲	-10.5782
までも	-10.5785
▁何だと	-10.5786
蹴	-10.5786
ふたり	-10.5788
▁ホント	-10.5789
▁僕も	-10.5791
駆け	-10.5792
屋さん	-10.5794
却	-10.5794
のかね	-10.5796
剥	-10.5798
ダメージ	-10.5798
隻	-10.5798
証明	-10.58
えない	-10.5803
やめてくれ	-10.5807
ぼう	-10.5808
ようなもの	-10.5812
ているの	-10.5813
したもの	-10.5813
勝手	-10.5819
さき	-10.5822
惑	-10.5824
一切	-10.5826
気持ちは	-10.583
ようですが	-10.5831
始めた	-10.5832
二年	-10.5835
▁なにか	-10.5835
んぞ	-10.5835
守る	-10.5837
▁愛	-10.5839
んど	-10.584
メー	-10.584
プラ	-10.5841
その通りだ	-10.5842
我々が	-10.5844
港	-10.5844
賊	-10.5846
苦手	-10.5846
大事に	-10.5847
休んで	-10.5847
束	-10.5853
さんって	-10.5853
才能	-10.5854
こんな事	-10.5855
着物	-10.5856
自覚	-10.5856
対処	-10.5857
あなたを	-10.5858
午後	-10.5861
下さる	-10.5861
を取る	-10.5862
二度と	-10.5864
気配	-10.5865
に入れて	-10.5866
聞こえる	-10.5868
てやる	-10.5869
▁わぁ	-10.5872
だめだ	-10.5873
どうです	-10.5874
くれよ	-10.5874
のことで	-10.5874
るんじゃない	-10.5875
置く	-10.5875
ないですよ	-10.5877
ましょ	-10.5878
参った	-10.5882
いただきたい	-10.5883
って言うの	-10.5884
ょ	-10.5884
てて	-10.5889
祖	-10.5892
――――――――	-10.5892
暮	-10.5894
食べ物	-10.5896
馬鹿に	-10.59
お呼び	-10.5901
伏	-10.5902
そんなもん	-10.5904
彩	-10.5909
疑問	-10.591
楽しかった	-10.5911
▁チッ	-10.5913
ルール	-10.5913
学校に	-10.5922
ことができ	-10.5928
釣り	-10.5931
慣れて	-10.5931
けどさ	-10.5935
いちゃ	-10.5935
城に	-10.5937
楓	-10.5937
▁兄貴	-10.594
一撃	-10.5948
▁今度	-10.5951
受けて	-10.5951
始	-10.5951
せず	-10.5954
▁正直	-10.5955
ファー	-10.5958
▁んん	-10.5958
▁人間	-10.596
区	-10.596
誰かに	-10.596
遥	-10.5965
署	-10.5966
さっぱり	-10.5966
携帯	-10.5966
えーと	-10.5967
困ります	-10.5967
と言うか	-10.5967
注文	-10.5967
及び	-10.5968
家へ	-10.5969
やってくれ	-10.5969
▁ふう	-10.5972
セット	-10.5974
達を	-10.5977
更	-10.5977
おおおお	-10.5979
かろう	-10.5979
女を	-10.5979
ではなくて	-10.598
やア	-10.5981
必要はない	-10.5983
怪物	-10.5983
▁少なくとも	-10.5984
改めて	-10.5984
みたら	-10.5984
まれて	-10.5985
と思ってた	-10.5987
▁何よ	-10.5988
▁これを	-10.5989
進んで	-10.5992
微	-10.5997
部活	-10.5999
こちらこそ	-10.6
▁椿	-10.6001
何者	-10.6004
もしや	-10.6009
ことになった	-10.6011
任せ	-10.6014
▁痛い	-10.6015
構え	-10.6018
支援	-10.6022
カムイ	-10.6023
要求	-10.6023
おぬし	-10.6024
フィーロ	-10.6024
おかしく	-10.6025
アイリス	-10.6026
に入れ	-10.6026
言いました	-10.6027
優しく	-10.6029
二人の	-10.6036
戦艦	-10.6036
かせ	-10.6037
らしいな	-10.6039
持っている	-10.6039
どんなに	-10.6041
下に	-10.6042
支え	-10.6042
やつら	-10.6044
しなければ	-10.6044
畜生	-10.6047
正気	-10.6048
ルル	-10.6054
こんなところに	-10.6058
▁きゃあ	-10.6059
重要な	-10.6059
そうよ	-10.6062
痛み	-10.6062
手間	-10.6065
そちらの	-10.6066
寄って	-10.6067
高く	-10.6068
みます	-10.6068
黄	-10.6071
しろよ	-10.6071
と思うんだけど	-10.6071
の敵	-10.6074
になれば	-10.6076
妖怪	-10.6079
令嬢	-10.6079
以上の	-10.608
景	-10.6085
▁死ね	-10.6085
種族	-10.6086
師団	-10.6086
しようと	-10.6088
いろんな	-10.609
まさに	-10.6091
うう	-10.6091
恨み	-10.6092
その前に	-10.6101
▁我々	-10.6101
だろうね	-10.6103
喰ら	-10.6103
歩き	-10.6103
止める	-10.6105
▁やっと	-10.6106
▁閣下	-10.6108
が来て	-10.6108
あるんですか	-10.6111
俺達の	-10.6111
やり方	-10.6114
あいつが	-10.6117
使った	-10.6117
▁というか	-10.6118
ところだ	-10.6119
▁オー	-10.612
どうにも	-10.612
スティ	-10.612
じゃア	-10.6121
パパ	-10.6122
誰かが	-10.6128
に手を	-10.6129
効	-10.6129
みよう	-10.6129
体の	-10.6131
国に	-10.6132
基本	-10.6133
管	-10.6134
設定	-10.6137
構わん	-10.6137
対策	-10.6139
以来	-10.614
発射	-10.614
聖女	-10.6145
なかったか	-10.6148
あああああああ	-10.6149
恥ずかし	-10.6149
日の	-10.615
ミュ	-10.6152
ウム	-10.6158
貰え	-10.6159
▁ブ	-10.6159
自由に	-10.6161
を立て	-10.6162
フー	-10.6163
レム	-10.6163
卑怯	-10.6166
上で	-10.6168
とく	-10.6169
わたくしが	-10.6171
火の	-10.6171
貰	-10.6176
ぶら	-10.6178
いざ	-10.6178
恨	-10.618
続	-10.6184
織	-10.6185
イス	-10.6188
ロス	-10.6192
ではないのか	-10.6193
やだ	-10.6193
イメージ	-10.6194
たまたま	-10.6198
先日	-10.6202
オーク	-10.6203
陣地	-10.6203
とか言って	-10.6203
したって	-10.6206
くださる	-10.6214
私のこと	-10.6215
全力で	-10.6215
ホン	-10.6216
私にも	-10.6216
ワケ	-10.6216
たた	-10.6217
おま	-10.6219
実家	-10.622
▁いつ	-10.6221
この先	-10.6226
▁八	-10.6227
勿論	-10.6227
真面目	-10.6233
ほれ	-10.6234
影響	-10.6235
を受けた	-10.6237
保護	-10.6239
せぬ	-10.624
ソウ	-10.6241
するのが	-10.6244
だろうし	-10.6247
力は	-10.6247
丁	-10.6249
浜	-10.6251
復讐	-10.6251
診	-10.6251
佐藤	-10.6254
処理	-10.6254
知ってた	-10.6256
わせ	-10.6257
してしまった	-10.6261
どうでしょう	-10.6261
なけりゃ	-10.6262
らせる	-10.6262
直ぐに	-10.6262
まない	-10.6265
地上	-10.6265
▁了解です	-10.6265
大臣	-10.6266
男だ	-10.6267
▁1	-10.6267
たとえ	-10.6269
わしが	-10.6271
訳で	-10.6273
デル	-10.6273
済ま	-10.6273
更に	-10.6275
いくつ	-10.6278
▁お前も	-10.6278
彼女の	-10.6279
焼け	-10.6282
ッサ	-10.6285
に使う	-10.629
スタン	-10.6291
▁あれが	-10.6292
ぬか	-10.6293
働	-10.6295
断る	-10.6296
そう言って	-10.6299
属	-10.6301
しねえ	-10.6301
たこと	-10.6304
緊急	-10.6309
臨	-10.6309
奢	-10.6309
柱	-10.631
ガル	-10.631
市民	-10.6312
飛ぶ	-10.6314
女房	-10.6317
割り	-10.6321
...<	-10.6322
しん	-10.6323
働いて	-10.6324
お考え	-10.6324
どこにいる	-10.6325
ことを言う	-10.6325
抜	-10.6328
ろっ	-10.6329
ようになる	-10.633
もんか	-10.6334
話だ	-10.6337
を使った	-10.6337
完全	-10.6337
魔導	-10.6338
そこを	-10.6338
お任せ	-10.6341
▁よかった	-10.6341
バラ	-10.6342
周り	-10.6343
川さん	-10.6343
犯罪	-10.6344
▁海	-10.6344
リュ	-10.6346
てない	-10.6348
世界の	-10.635
少なくとも	-10.6351
いるのです	-10.6354
▁きっと	-10.6356
みましょう	-10.6358
ケー	-10.6359
科学	-10.6359
待った	-10.6362
へと	-10.6363
否	-10.6366
停	-10.6368
靴	-10.6368
蜂	-10.6368
歓迎	-10.6368
ポーション	-10.6369
見つかった	-10.6369
音が	-10.6369
んすか	-10.6371
▁何も	-10.6376
▁お願い	-10.6376
▁2	-10.6381
避難	-10.6383
これくらい	-10.6387
お疲れ	-10.6388
あなた方	-10.6391
▁マスター	-10.6392
止めろ	-10.6394
超え	-10.6394
誠	-10.6394
どっちが	-10.6398
外で	-10.6399
▁姉さん	-10.6406
どけ	-10.6407
ないので	-10.6409
女に	-10.6411
目は	-10.6412
薬を	-10.6413
そしたら	-10.6415
お休み	-10.6415
やっている	-10.6418
~......	-10.642
おこう	-10.642
▁アー	-10.6421
ますので	-10.6424
っちゃって	-10.6424
拳	-10.6426
もんね	-10.6426
御座います	-10.6426
澄	-10.6427
ミサイル	-10.6427
凶	-10.6427
するような	-10.6427
教授	-10.6427
現状	-10.6428
何者だ	-10.6433
小娘	-10.6434
宜	-10.6434
不可能	-10.6435
イエ	-10.6435
▁殿下	-10.6437
処分	-10.6441
を探して	-10.6444
分かりません	-10.6451
のくせに	-10.6458
プレイ	-10.6463
のであれば	-10.6464
預	-10.6465
▁さっきの	-10.6468
思われ	-10.6473
▁赤	-10.6473
いましたが	-10.6474
輩	-10.6475
してもいい	-10.6477
賞	-10.6478
だったんですか	-10.6478
ねば	-10.648
ッと	-10.6482
招	-10.6485
:	-10.6486
煮	-10.6486
エネルギー	-10.6486
血を	-10.6486
簡単	-10.6487
てくれた	-10.6487
だなあ	-10.6488
うむ	-10.6488
▁ホ	-10.6488
教師	-10.6491
渡して	-10.6491
笑顔	-10.6493
つもりはない	-10.6494
ミア	-10.6499
していて	-10.65
頭の	-10.6509
ここが	-10.651
いただく	-10.651
えらい	-10.6514
ビア	-10.6515
はあるか	-10.652
後ろに	-10.6523
彼女が	-10.6542
わが	-10.6543
おめでとう	-10.6545
氣	-10.6545
心臓	-10.6547
二日	-10.6548
やう	-10.6548
運転	-10.6548
ホテル	-10.6548
ないって	-10.6549
なかったから	-10.655
ぇっ	-10.6551
ちやん	-10.6551
ネタ	-10.6553
さーん	-10.6553
いいわよ	-10.6553
全ての	-10.6559
私から	-10.6559
僕達	-10.656
あゝ	-10.6561
▁エウロパ	-10.6563
常に	-10.6563
ラル	-10.6565
とうとう	-10.6566
しまいます	-10.6568
などと	-10.6569
ハハハ	-10.6571
いいですよ	-10.6575
説明して	-10.6575
テレ	-10.6579
見ると	-10.658
聞いてる	-10.6582
釣	-10.6582
ようこそ	-10.6583
▁やっ	-10.6584
何を言って	-10.6585
申した	-10.6586
しておる	-10.6587
ッて	-10.6592
する事	-10.6593
攻撃を	-10.6594
居て	-10.6595
くらいなら	-10.6598
▁手	-10.6599
この街	-10.6599
お邪魔	-10.66
するわ	-10.66
ココ	-10.6601
裁	-10.6604
映	-10.6605
滑	-10.6605
哉	-10.6605
決まった	-10.6606
きゅ	-10.6607
そっくり	-10.6609
を始め	-10.661
残っている	-10.6615
もう一回	-10.6615
▁まるで	-10.6615
祝	-10.6616
▁そんなもの	-10.6616
はやく	-10.6616
抜いて	-10.6616
▁馬鹿な	-10.6618
を与え	-10.6621
学院	-10.6621
使わ	-10.6623
あなたたち	-10.6624
持て	-10.6626
聞きました	-10.6626
染	-10.6627
触手	-10.6628
はいっ	-10.6641
▁あなたの	-10.6645
何の話	-10.6646
受け入れ	-10.6646
▁えーっと	-10.6647
が出来	-10.6647
熱い	-10.6649
苦し	-10.665
と思	-10.665
ほかの	-10.665
みんなで	-10.6652
人々	-10.6654
▁だからこそ	-10.6655
▁きゃっ	-10.6655
つもりだった	-10.6655
房	-10.6657
急ぎ	-10.6657
なすった	-10.6659
こともある	-10.666
らす	-10.6662
準備は	-10.6662
康	-10.6663
みなさん	-10.6665
核	-10.6666
症	-10.6666
賛成	-10.6666
指導	-10.6667
つまらない	-10.6667
儀式	-10.6667
付ける	-10.6668
書類	-10.667
殺され	-10.6674
▁わっ	-10.6676
冷たい	-10.6678
ごらん	-10.6679
▁ふふっ	-10.668
なんや	-10.6681
▁ピ	-10.6681
来たら	-10.6682
王族	-10.6683
済み	-10.6685
殺人	-10.6685
様のお	-10.6686
なぞ	-10.6686
『<	-10.6687
ソー	-10.6687
の神	-10.6687
捨てて	-10.6688
抑え	-10.669
ブラック	-10.6693
あれを	-10.6698
左様	-10.6698
制服	-10.6701
暮らし	-10.6703
状態で	-10.6705
▁本	-10.6706
材	-10.6707
御免	-10.6711
ピン	-10.6712
▁同じ	-10.6718
朱	-10.6718
おらん	-10.6721
はどこ	-10.6722
ござります	-10.6722
かと思って	-10.6723
来たんだ	-10.6725
講	-10.6725
旋	-10.6726
砂	-10.6726
仙	-10.6726
須	-10.6726
巣	-10.6726
捜査	-10.6726
評価	-10.6726
きちんと	-10.6727
温泉	-10.6727
と思われます	-10.6728
15	-10.673
親友	-10.673
貸し	-10.6731
ウィル	-10.6732
スケ	-10.6735
分からん	-10.6736
てもいい	-10.6738
▁無	-10.6742
遊ば	-10.6744
の事は	-10.6746
がいない	-10.6746
急げ	-10.6747
お手	-10.6749
パイ	-10.6753
ありますか	-10.6753
▁旦那様	-10.6753
だけじゃ	-10.6757
ドー	-10.6762
ちがう	-10.6765
▁そこは	-10.6765
部屋で	-10.6768
をかけて	-10.6768
に移	-10.6768
の攻撃	-10.6772
▁おおっ	-10.6777
お帰りなさい	-10.678
と思うの	-10.6781
どうなっている	-10.6781
教える	-10.6782
さまの	-10.6782
幻	-10.6786
泥	-10.6787
鍋	-10.6787
,	-10.6787
億	-10.6787
試練	-10.6788
計算	-10.6788
反省	-10.6788
それなりに	-10.6789
散歩	-10.6789
呼ばれて	-10.679
騎	-10.6791
不可	-10.6792
の一つ	-10.6798
気のせい	-10.68
必死	-10.6803
なかつた	-10.6803
ありませんよ	-10.6804
ギル	-10.6806
駆	-10.6809
そう言えば	-10.6809
がよい	-10.6811
合った	-10.6812
朝から	-10.6813
やれる	-10.6814
許す	-10.6814
▁今日の	-10.6814
やる気	-10.6818
思い出した	-10.6818
物語	-10.6818
方面	-10.6819
▁ふうん	-10.6821
ずいぶんと	-10.6824
りなさい	-10.6825
キュー	-10.6825
の森	-10.6829
変なこと	-10.6832
▁マジで	-10.6833
凄	-10.6835
切った	-10.6838
暑い	-10.6839
そろ	-10.684
in	-10.684
を見せ	-10.6842
嬢ちゃん	-10.6842
剣を	-10.6844
築	-10.6848
沼	-10.6848
盤	-10.6848
常識	-10.6848
誘拐	-10.6849
倒す	-10.6849
拭	-10.6849
せた	-10.6849
背負	-10.6849
控え	-10.6851
種類	-10.6851
食料	-10.6851
統一	-10.6852
この世	-10.6852
▁やだ	-10.6856
▁どれ	-10.6857
正義	-10.6858
▁どうやって	-10.686
たまには	-10.6861
お言葉	-10.6863
ご存じ	-10.6863
の存在	-10.6863
話がある	-10.6865
これからは	-10.6865
泣	-10.6867
でなければ	-10.6873
おまえは	-10.6875
最初	-10.6877
優先	-10.6878
世界に	-10.6885
りゃあ	-10.6885
貰い	-10.6885
思わない	-10.6886
一族	-10.6887
お二人	-10.6889
を取	-10.6895
一郎	-10.6901
向いて	-10.6903
仇	-10.691
償	-10.691
援護	-10.691
資料	-10.6911
退屈	-10.6911
自分を	-10.6912
所属	-10.6913
変更	-10.6914
からさ	-10.6914
た方がいい	-10.6914
▁後	-10.6915
でしたが	-10.6916
▁あらあら	-10.6916
安い	-10.6917
ぐぅ	-10.6919
キッ	-10.692
こういうの	-10.692
▁んっ	-10.6921
やうに	-10.6923
一瞬	-10.6924
くれるの	-10.6926
大人しく	-10.693
意思	-10.6931
そいつは	-10.6932
▁君が	-10.6933
12	-10.6935
協力して	-10.6935
)』	-10.694
やめてください	-10.6941
麗華	-10.6942
待ちなさい	-10.6946
寄り	-10.6946
自分に	-10.6946
いじめ	-10.6946
人族	-10.695
震	-10.6952
チャー	-10.6954
出身	-10.6954
良くない	-10.6954
そうでした	-10.6959
そんなことは	-10.696
ぁあ	-10.6961
ナさん	-10.6963
いと	-10.6964
>』	-10.6965
内の	-10.6966
なかろう	-10.6966
ナ様	-10.6968
動け	-10.697
来るの	-10.6971
蒼	-10.6971
史	-10.6972
来てる	-10.6972
羊	-10.6972
惨	-10.6972
▁特に	-10.6972
階段	-10.6973
の道	-10.6974
訊	-10.6975
終わ	-10.6976
ゴメン	-10.6978
の悪い	-10.6979
とは思わなかった	-10.698
五郎	-10.6981
合流	-10.6984
というのが	-10.6985
開けて	-10.6985
イヤー	-10.6987
何かしら	-10.6988
▁ひぃ	-10.6991
砲撃	-10.6992
るまで	-10.6993
武士	-10.6998
初め	-10.6998
エレ	-10.6998
先輩は	-10.7002
何をした	-10.7004
泣か	-10.7004
ほぼ	-10.7005
誰でも	-10.7006
▁朝	-10.7007
別れ	-10.7011
あんたら	-10.7012
それにしても	-10.7013
倒した	-10.7013
クション	-10.7014
言っちゃ	-10.7014
▁あい	-10.7018
▁なんですか	-10.7019
ぢやない	-10.702
撃つ	-10.7021
カス	-10.7022
埋め	-10.7022
▁そうなのですか	-10.7023
守って	-10.7024
惜し	-10.7024
戻れ	-10.7025
撃て	-10.7025
にしよう	-10.7027
週	-10.7029
当時	-10.703
稼	-10.703
行ってきます	-10.7032
かける	-10.7032
泉	-10.7033
写	-10.7033
瑠	-10.7034
削	-10.7035
涼	-10.7035
ゴーレム	-10.7035
どんどん	-10.7035
待ってる	-10.7036
シールド	-10.7038
楽しみにして	-10.7038
サクラ	-10.7039
カメラ	-10.7039
させてもらう	-10.7043
サイズ	-10.7046
チャン	-10.7047
寄せ	-10.7052
寂しい	-10.7054
ウソ	-10.7054
建	-10.7058
レット	-10.7058
威力	-10.7059
▁嫌	-10.7059
懸	-10.706
おや	-10.7062
に決まってる	-10.7071
▁二人とも	-10.7074
することは	-10.7075
オレが	-10.7077
言っておく	-10.7078
うーん	-10.708
明日の	-10.708
まて	-10.7086
たし	-10.7087
宜い	-10.7087
動かない	-10.7088
素敵な	-10.7089
オス	-10.709
参ります	-10.7091
を呼んで	-10.7092
~~~~	-10.7092
識	-10.7095
汗	-10.7098
怨	-10.7098
零	-10.7098
イケメン	-10.7098
舟	-10.7098
台詞	-10.7098
に出る	-10.7098
宜しく	-10.7098
頭に	-10.7099
説得	-10.7099
▁・・・・	-10.7101
ナイフ	-10.7103
あるいは	-10.7104
付き合い	-10.7106
うそ	-10.7106
家で	-10.7107
よろしいでしょうか	-10.7107
げて	-10.7108
困って	-10.7109
狙	-10.7112
ものなの	-10.7113
であって	-10.7114
▁お嬢様	-10.7116
▁なにを	-10.7116
思っている	-10.7117
不明	-10.7118
刑事	-10.7119
▁師匠	-10.7123
私達の	-10.7123
ヘル	-10.7123
れば良い	-10.7123
望み	-10.7131
ラティナ	-10.7132
お弁当	-10.7135
古い	-10.7138
はん	-10.7138
気付いて	-10.7144
ソレ	-10.7145
▁ここが	-10.7151
おけば	-10.7154
どこかで	-10.7157
労	-10.716
左衛門	-10.7161
犠牲	-10.7161
牧	-10.7161
根拠	-10.7161
指輪	-10.7162
伸び	-10.7162
と思いまして	-10.7163
みたいなもの	-10.7163
誘い	-10.7165
金貨	-10.7168
▁僕が	-10.7169
二階	-10.7171
ということですか	-10.7171
そうだよ	-10.7173
系の	-10.7174
▁さっさと	-10.7176
フラン	-10.7177
何もかも	-10.7178
に任せて	-10.7178
かわ	-10.7181
いくらでも	-10.7181
遅	-10.7182
ぐる	-10.7186
ぇぇぇ	-10.719
飲め	-10.7191
勢力	-10.7194
叩	-10.7196
マルス	-10.7201
に来たの	-10.7203
両方	-10.7205
びっくり	-10.7206
集まって	-10.7206
はなかった	-10.7208
時計	-10.7211
はいつ	-10.7213
してから	-10.7213
数は	-10.7214
しまえば	-10.7214
みるか	-10.7214
ヘン	-10.7215
今のは	-10.7216
んだし	-10.7217
▁俺に	-10.7221
んだけどな	-10.7222
誤	-10.7223
あの二人	-10.7224
可哀想	-10.7225
そうなると	-10.7225
お嬢	-10.7225
目覚め	-10.7225
復活	-10.7225
の方々	-10.7226
などは	-10.7228
っちまった	-10.7229
みたいね	-10.723
尻	-10.7233
頼り	-10.7235
魔石	-10.7236
双	-10.7236
少しだけ	-10.724
付か	-10.7241
読	-10.7242
鍛え	-10.7243
を確認	-10.7244
達も	-10.7244
フェイ	-10.7244
さまは	-10.7245
独り	-10.7245
もういい	-10.7246
程度の	-10.7249
何なんだ	-10.7251
何の用	-10.7252
事になる	-10.7254
婚約者	-10.7254
にあった	-10.7254
聞かない	-10.7258
そん	-10.7258
負けて	-10.7259
ただいま	-10.7261
おし	-10.7262
んだからね	-10.7262
走り	-10.7264
謝る	-10.7265
人質	-10.7267
やらない	-10.7268
つー	-10.7268
武器を	-10.7269
上がった	-10.727
近所	-10.7271
云い	-10.7271
閉	-10.7273
外れ	-10.7274
ふぁ	-10.7278
訳じゃない	-10.7283
っすね	-10.7286
だけに	-10.7286
穏	-10.7287
邸	-10.7289
ったって	-10.7289
文学	-10.729
ないんだけど	-10.7291
学校の	-10.7292
だす	-10.7295
消えた	-10.7297
夜の	-10.7298
は何だ	-10.7302
の後	-10.7303
最後まで	-10.7306
おかげで	-10.7307
に戻って	-10.7311
歩け	-10.7313
チョコ	-10.7316
なんとも	-10.7318
アイス	-10.7318
ョ	-10.7319
軽く	-10.732
地に	-10.732
ガッ	-10.732
ではなかった	-10.7321
国王	-10.7325
はじめて	-10.7326
聞いてない	-10.7328
▁もしもし	-10.733
が有る	-10.733
頂き	-10.7331
軍が	-10.7335
四人	-10.7336
イラ	-10.7337
売る	-10.7338
書く	-10.7339
備え	-10.734
と思えば	-10.734
魔王様	-10.7345
たれ	-10.7346
つもりなの	-10.7351
まれた	-10.7351
はどんな	-10.7352
災	-10.7352
響	-10.7352
できるの	-10.7353
葵	-10.7353
亀	-10.7353
帳	-10.7353
記録	-10.7354
大きさ	-10.7355
集団	-10.7356
お互い	-10.7356
リカ	-10.7357
侵入	-10.7358
食堂	-10.7358
ーーーーー	-10.7358
わるい	-10.7359
何度	-10.7359
おかしな	-10.7359
と言います	-10.736
を置いて	-10.7361
▁大丈夫ですか	-10.7363
ガイ	-10.7368
▁成程	-10.737
うれしい	-10.737
▁たぶん	-10.737
▁あのね	-10.7372
のところへ	-10.7375
来ている	-10.7376
▁ゴ	-10.7378
閉じ	-10.738
▁行くぞ	-10.7386
くださ	-10.7387
戦え	-10.7389
褒めて	-10.7392
か何か	-10.7394
ってさ	-10.7394
かなりの	-10.7395
惚れ	-10.7397
ませう	-10.7397
▁大丈夫だ	-10.7397
下がって	-10.7398
呉	-10.7399
とは違う	-10.7399
真っ	-10.7402
悪いこと	-10.7403
木さん	-10.7405
の時に	-10.7406
貸して	-10.7406
それだけで	-10.7407
のですから	-10.7408
担	-10.7416
諸君	-10.7417
▁あそこ	-10.7418
唐	-10.7418
軒	-10.7418
嫉妬	-10.7418
網	-10.7418
ヽ	-10.7418
気か	-10.7419
周辺	-10.7419
仮面	-10.7421
祈り	-10.7422
かれる	-10.7424
▁こう	-10.7427
どこだ	-10.7428
▁失礼します	-10.7434
戻った	-10.7435
もあり	-10.7435
聞かれ	-10.7436
しゅう	-10.7442
グラン	-10.7442
無事で	-10.7443
は別	-10.7443
そのように	-10.7445
フロ	-10.7446
体に	-10.7448
ホッ	-10.745
深く	-10.745
お見	-10.745
んじ	-10.745
しまして	-10.7452
を呼び	-10.7453
数日	-10.7454
辞め	-10.7456
益	-10.7456
お手伝い	-10.7459
ないのですか	-10.746
大分	-10.7463
なんでそんな	-10.7464
があったの	-10.7466
少尉	-10.7471
ちゃダメ	-10.7472
敵に	-10.7473
はどこに	-10.7474
ひとりで	-10.7481
玄	-10.7483
ばれ	-10.7483
那	-10.7483
なんていう	-10.7483
研	-10.7484
大陸	-10.7484
でございました	-10.7487
▁どうしたんだ	-10.7487
着く	-10.7488
ホーム	-10.749
もらおうか	-10.7491
いますから	-10.7493
手に入れ	-10.7494
すみ	-10.7494
いったい何	-10.7495
ついに	-10.7497
▁東	-10.7498
あう	-10.75
ウルフ	-10.7501
に行くの	-10.7504
有名	-10.7504
お話を	-10.7504
いつもの	-10.7504
理解でき	-10.7507
せぇ	-10.7508
くんの	-10.7509
馬鹿野郎	-10.7511
るために	-10.7514
くり	-10.7519
リィ	-10.7521
ユリ	-10.7521
御前	-10.7525
刑	-10.7525
先の	-10.7525
本当ですか	-10.7526
探索	-10.7528
▁すまん	-10.7528
ロシア	-10.7533
▁(......	-10.7535
物の	-10.7536
▁結構	-10.7538
だけれど	-10.7539
だったのに	-10.7542
僧	-10.7544
っつー	-10.7546
▁全員	-10.7546
象	-10.7547
塞	-10.7548
童	-10.7549
終了	-10.755
専門	-10.755
ったのは	-10.7551
▁ひゃ	-10.7552
有難う	-10.7553
自体	-10.7555
くださいませ	-10.7556
向かって	-10.7557
ウチの	-10.7557
と聞いて	-10.7561
が入って	-10.7562
美味	-10.7563
ドア	-10.7564
がぁ	-10.7566
帰って来	-10.7567
というより	-10.7569
▁有希	-10.7572
勝手な	-10.7577
▁千	-10.7578
特別な	-10.7579
大勢	-10.7579
たちを	-10.758
なんだな	-10.759
鈴	-10.7596
▁あのさ	-10.7599
被害者	-10.7599
それ以外	-10.7599
持ってきて	-10.7602
するなんて	-10.7605
意味で	-10.7605
ケル	-10.7607
カレー	-10.7607
同時に	-10.7609
不幸	-10.7611
のうち	-10.7611
営	-10.7614
律	-10.7614
価	-10.7615
準	-10.7615
梨	-10.7615
凍	-10.7616
把握	-10.7616
容易	-10.7616
決闘	-10.7616
呼べ	-10.7617
その話	-10.7618
守護	-10.7619
出かけ	-10.7619
暫く	-10.762
〜!	-10.762
▁きゅ	-10.7621
当たる	-10.7621
人間を	-10.7622
ニング	-10.7624
の妹	-10.7626
が出来る	-10.7626
たんだよ	-10.7627
フランス	-10.7627
今のところ	-10.7629
ーヌ	-10.7631
機能	-10.7632
致し	-10.7636
レナ	-10.7636
が居る	-10.7636
かかり	-10.7637
かわからない	-10.7639
同行	-10.764
るぜ	-10.764
ものだな	-10.7641
いいんだよ	-10.7646
気の	-10.7646
めー	-10.7647
暗い	-10.7647
現れた	-10.7648
何があった	-10.765
して欲しい	-10.7653
王の	-10.7653
場所で	-10.7655
例え	-10.7658
でお	-10.766
ヶ月	-10.7663
隣の	-10.7663
▁君の	-10.7667
りする	-10.7669
こうなる	-10.767
というのだ	-10.7671
浪	-10.7673
▁ったく	-10.7675
くらいの	-10.7679
沖	-10.7682
芝居	-10.7683
回避	-10.7683
装置	-10.7683
火を	-10.7683
爆弾	-10.7684
ほんの	-10.7685
くさ	-10.7685
その時は	-10.7686
▁ボク	-10.7687
驚く	-10.7691
暑	-10.7693
噛	-10.7693
の動き	-10.7694
夕食	-10.7696
いらっしゃいます	-10.7697
見せる	-10.77
次元	-10.7701
▁いくら	-10.7705
言ってない	-10.7705
シス	-10.7706
うちは	-10.771
オリ	-10.7712
なさそう	-10.7713
この辺り	-10.7714
そうじゃなくて	-10.7715
砕	-10.7716
しー	-10.772
をかけ	-10.7721
潰す	-10.7722
今晩	-10.7725
払って	-10.7726
のでございます	-10.7727
ちょい	-10.773
▁可愛い	-10.7732
はぁっ	-10.7732
いかにも	-10.7733
バカな	-10.7734
わけには	-10.7738
そうですけど	-10.7738
▁いいよ	-10.7738
真似を	-10.774
接近	-10.7742
ハハハハ	-10.7743
なされ	-10.7744
棄	-10.7747
消えて	-10.7748
鈍	-10.7748
我らが	-10.7749
つかれ	-10.7749
樣	-10.7749
磨	-10.775
逸	-10.775
菊	-10.775
活躍	-10.775
作れる	-10.775
▁そこに	-10.775
解除	-10.7751
全てを	-10.7753
状況は	-10.7756
流行	-10.7756
▁失礼	-10.7758
らないで	-10.776
ほか	-10.7762
だもん	-10.7763
今日から	-10.7764
ではございません	-10.7765
給え	-10.7766
ぞー	-10.7768
▁むしろ	-10.777
コール	-10.777
良いか	-10.777
ロッカ	-10.7773
らっしゃい	-10.7776
ボケ	-10.7778
きなさい	-10.7781
ったこと	-10.7781
そうじゃ	-10.7781
ないんだから	-10.7784
付けた	-10.7785
▁魔王	-10.7785
何でしょうか	-10.7788
私たちの	-10.7792
だか	-10.7793
どうなった	-10.7793
どうします	-10.7794
婦人	-10.7795
サル	-10.7797
うございます	-10.7798
住んで	-10.7798
頂いて	-10.7798
どういう事だ	-10.7798
軍事	-10.78
気味	-10.7802
増えて	-10.7802
考えてる	-10.7806
を忘れ	-10.7806
勇気	-10.7807
スイ	-10.781
▁てめぇ	-10.781
下の	-10.7812
くださいよ	-10.7812
幼	-10.7812
舎	-10.7813
因	-10.7814
羨ましい	-10.7817
▁優	-10.7818
ルート	-10.7819
は知らない	-10.7819
りん	-10.7822
与え	-10.7822
者だ	-10.7822
明日から	-10.7823
トップ	-10.7825
の息子	-10.7825
揚げ	-10.783
どうだい	-10.7831
ものですから	-10.7835
▁これって	-10.7836
ものではない	-10.7836
加減	-10.7836
に居る	-10.7838
たいへん	-10.7839
添	-10.7845
▁あたしは	-10.7845
微妙	-10.7846
オオ	-10.7847
を持った	-10.7847
てん	-10.7849
なのでしょうか	-10.785
僕と	-10.785
しやがって	-10.7851
似合う	-10.7851
ユーリ	-10.7853
ことができる	-10.7853
命じ	-10.7854
ますわ	-10.7854
方々	-10.7855
なのですね	-10.7857
おやすみ	-10.7858
▁男	-10.7859
じゃろ	-10.7859
挙げ	-10.786
水着	-10.786
ですねぇ	-10.7861
エア	-10.7862
信じられ	-10.7866
いいです	-10.7868
ないでくれ	-10.7868
ぶつ	-10.7868
面倒な	-10.7869
られてる	-10.787
ちん	-10.7871
じゃねー	-10.7871
聞	-10.7875
といっても	-10.7877
一体何を	-10.7878
理想	-10.7879
▁ちょっと待って	-10.7883
外に出	-10.7883
掻	-10.7885
持ってきた	-10.7886
誕生日	-10.7887
ものがある	-10.7888
じゃなく	-10.7888
供	-10.7889
変身	-10.7889
お久しぶりです	-10.789
新たな	-10.7892
やろうか	-10.7893
▁自分で	-10.7896
降伏	-10.7898
たまに	-10.7899
と思うか	-10.7903
なのかしら	-10.7903
長谷川さん	-10.7905
▁一緒に	-10.7905
でね	-10.7905
ってことで	-10.7906
思っていた	-10.7907
ということだ	-10.7908
どこに行く	-10.791
一つの	-10.791
を考えて	-10.791
ところへ	-10.791
るほど	-10.7913
暴力	-10.7913
たくて	-10.7917
の花	-10.7917
▁普通	-10.792
婆さん	-10.7921
▁そいつは	-10.7921
▁お願いします	-10.7921
の名前は	-10.7924
にて	-10.7931
いいこと	-10.7936
の家に	-10.7937
▁じゃぁ	-10.7937
呑	-10.7938
のですけれど	-10.7938
はいけません	-10.7946
があるなら	-10.7946
王国の	-10.7947
の下に	-10.7948
時から	-10.7949
乾	-10.7953
牢	-10.7953
塚	-10.7953
%	-10.7954
ティムール	-10.7954
税	-10.7954
加護	-10.7955
モデル	-10.7956
なくって	-10.7956
意志	-10.7956
野菜	-10.7958
かわいそう	-10.7971
ませんから	-10.7972
と思い	-10.7973
▁あんまり	-10.7974
するように	-10.7974
申し訳	-10.7979
づけ	-10.7979
ライアン	-10.798
だがな	-10.798
利益	-10.7982
当主	-10.7982
っとる	-10.7986
青い	-10.7989
大使	-10.7993
かなー	-10.7994
変えて	-10.7994
試してみ	-10.7994
▁ローゼマイン様	-10.7998
この後	-10.8001
針	-10.8002
▁夢	-10.8004
足が	-10.8008
理由を	-10.8009
世の	-10.8009
フレ	-10.801
しちゃって	-10.801
俺達が	-10.8012
救い	-10.8015
ヒュー	-10.8015
としか	-10.8015
えー	-10.8015
玲	-10.8016
待ってくれ	-10.8016
だけだから	-10.8017
承	-10.8019
さっそく	-10.8023
征	-10.8023
宰相	-10.8023
気づいて	-10.8023
拒否	-10.8023
ぢやないか	-10.8023
ァァ	-10.8023
見たら	-10.8024
浴び	-10.8024
もはや	-10.8025
出来ます	-10.8026
向かう	-10.8028
悪いけど	-10.8028
ユウキ	-10.8028
▁良かった	-10.8032
と言うの	-10.8032
国を	-10.8039
誇り	-10.8039
送る	-10.8042
さまが	-10.8045
遊びに	-10.8046
ふむ	-10.805
きれ	-10.8052
過ぎた	-10.8054
が出来た	-10.8057
に興味	-10.8058
知っています	-10.8059
そー	-10.806
取引	-10.8061
使者	-10.8062
いるのに	-10.8064
を受ける	-10.8065
いふ	-10.8066
▁あの子	-10.8074
いいのよ	-10.8077
ラブ	-10.808
ダル	-10.8083
ねえか	-10.8083
後方	-10.8083
決める	-10.8084
愚か	-10.8084
くわ	-10.8087
今頃	-10.8089
財	-10.809
就	-10.8091
今年	-10.8091
斎	-10.8091
紋	-10.8091
佳	-10.8092
愉快	-10.8092
漫画	-10.8092
解け	-10.8092
▁本当ですか	-10.8095
!!!!!	-10.8096
ハナ	-10.8096
ジャック	-10.8096
おら	-10.8097
とっとと	-10.8097
文化	-10.81
音楽	-10.8101
▁まあまあ	-10.8102
ヴァン	-10.8104
げる	-10.8104
じゃね	-10.8106
いくぞ	-10.8109
▁知らない	-10.811
でして	-10.8113
婦	-10.8114
着け	-10.8116
大丈夫よ	-10.8117
似	-10.8118
▁へい	-10.8119
書いた	-10.8119
心得	-10.812
存じます	-10.8128
残る	-10.8128
わねえ	-10.8128
んだがな	-10.8129
キロ	-10.8132
気を付けて	-10.8134
なんだね	-10.8136
大量	-10.8137
ちっ	-10.814
死な	-10.8141
の関係	-10.8145
そうそう	-10.8145
かつて	-10.8146
立派	-10.8147
もったいない	-10.8149
免	-10.8153
駄	-10.8153
スパイ	-10.8155
飲ま	-10.8156
小屋	-10.8158
でしたっけ	-10.8159
いいや	-10.816
薔薇	-10.8162
申し訳ございません	-10.8162
尚文	-10.8163
全滅	-10.8165
▁マジ	-10.8166
癖に	-10.8167
の方から	-10.817
すげぇ	-10.8172
ブレイ	-10.8172
▁どっち	-10.8172
▁危ない	-10.8174
というものは	-10.8175
笑う	-10.8176
は私の	-10.8176
仕事は	-10.8177
考えれば	-10.8177
▁四	-10.8178
まーす	-10.8178
を狙って	-10.8182
ないんだよ	-10.8184
側の	-10.8185
只	-10.8186
物理	-10.8186
入らない	-10.8187
魔人	-10.8189
ミル	-10.8193
があるか	-10.8195
しているのか	-10.8196
重要	-10.8197
落とす	-10.8201
眠れ	-10.8204
ヨウ	-10.8204
老人	-10.8206
運が	-10.8211
▁むぅ	-10.8212
ていない	-10.8215
そういうのは	-10.8215
想い	-10.8216
たりしない	-10.8216
されたら	-10.8219
▁もういい	-10.8222
見ている	-10.8225
▁流石	-10.8226
先輩が	-10.8226
するんですか	-10.8229
わー	-10.8229
錬	-10.8232
隅	-10.8232
猛	-10.8232
なるべく	-10.8232
寮	-10.8232
マウリア	-10.8232
男爵	-10.8234
OK	-10.8234
済	-10.8235
ムラ	-10.8237
モー	-10.824
されたの	-10.8241
來	-10.8242
ないのよ	-10.8244
一週間	-10.8245
見つけ	-10.8245
軽い	-10.8246
待機	-10.8248
地面	-10.8255
いー	-10.8255
とは言え	-10.8259
ローゼマイン様	-10.8265
出来ません	-10.8267
面白	-10.8268
できるか	-10.8271
ダーク	-10.8275
曜	-10.8276
りして	-10.8279
してもらう	-10.828
連合軍	-10.8289
狙われ	-10.8293
いき	-10.8296
に参加	-10.8297
上様	-10.8297
期待して	-10.8297
お前と	-10.8299
際に	-10.8299
所を	-10.8301
▁和	-10.8301
▁空	-10.8303
互	-10.8303
託	-10.8303
睨	-10.8303
丹	-10.8303
灰	-10.8303
だいじょうぶ	-10.8303
没	-10.8303
クリスマス	-10.8304
貴様の	-10.8305
嘘だろ	-10.8305
引いて	-10.8307
危機	-10.8308
権利	-10.8308
やれば	-10.8308
とは思えない	-10.8309
さが	-10.8309
されます	-10.8311
居ります	-10.8311
させていただきます	-10.8312
するなよ	-10.8313
ござんす	-10.8313
するために	-10.8314
もらえない	-10.8315
水の	-10.8318
消し	-10.832
礼を	-10.8321
してあげ	-10.8322
よろしくね	-10.8323
カッ	-10.8324
仕事が	-10.8326
パル	-10.8328
兵を	-10.8329
ヴェル	-10.833
大地	-10.833
ドロ	-10.8332
の剣	-10.8334
堅	-10.8336
一件	-10.8337
騙	-10.8339
プリン	-10.8344
▁ギ	-10.8346
私達が	-10.8347
ほー	-10.8352
るのだ	-10.8354
一匹	-10.8355
▁サハラ	-10.8358
は確か	-10.8359
さんたち	-10.8361
おめえ	-10.8362
の頃	-10.8364
よかろう	-10.8364
幸い	-10.8364
ないで下さい	-10.8366
▁わー	-10.8368
金が	-10.8369
濃	-10.837
仰せ	-10.8374
捜	-10.8374
アロー	-10.8375
湖	-10.8375
なりました	-10.8375
るとは	-10.8375
▁&	-10.8376
ようになった	-10.8377
お姫様	-10.8377
筋肉	-10.8378
当たって	-10.8381
組んで	-10.8381
近衛	-10.8383
それくらい	-10.8385
貴女は	-10.8387
かかった	-10.8395
▁こりゃ	-10.8395
明か	-10.8397
のぉ	-10.8401
ヤバい	-10.8402
と思いました	-10.8405
れてる	-10.8406
通って	-10.8408
▁ほんとに	-10.8408
そうは	-10.8408
▁申し訳ありません	-10.8412
可能性がある	-10.8413
せいで	-10.8417
フィア	-10.8417
してたの	-10.8419
崩	-10.842
らぁ	-10.842
かま	-10.8422
こちらは	-10.8424
千夜	-10.8425
遇	-10.8427
幾つ	-10.8429
くだ	-10.843
緒	-10.843
しなきゃ	-10.8433
になっても	-10.8434
ないでしょ	-10.8434
▁ハル	-10.8434
琴	-10.8437
ぜん	-10.8437
変わら	-10.8438
いますね	-10.8441
借りて	-10.8441
課	-10.8443
査	-10.8446
さっきまで	-10.8446
潔	-10.8447
圭	-10.8447
どうかしましたか	-10.8447
いてください	-10.8448
といて	-10.8449
払う	-10.8449
出ない	-10.8449
じゃないから	-10.8449
武装	-10.845
生まれた	-10.845
職業	-10.845
しますね	-10.8451
このままでは	-10.8452
グレン	-10.8453
細かい	-10.8455
フィー	-10.8457
植物	-10.8457
てぇ	-10.846
飾り	-10.846
ちょっと待て	-10.846
無理です	-10.8461
何もない	-10.8463
えええ	-10.8464
娘が	-10.8465
言い訳	-10.8465
ちっとも	-10.8467
細工	-10.8468
かもしれ	-10.8469
守れ	-10.847
じて	-10.8471
挙	-10.8472
立た	-10.8474
二度	-10.8476
▁旦那	-10.848
アナ	-10.848
そうなります	-10.8482
▁ごめんね	-10.8486
▁何だよ	-10.8487
みたいだね	-10.8488
▁さっきから	-10.8489
望む	-10.849
コト	-10.8491
▁そこの	-10.8494
祈	-10.8496
俺たちは	-10.8497
間違え	-10.8497
してます	-10.8499
メント	-10.8502
のようなもの	-10.8503
いいのに	-10.8504
戦った	-10.8506
悲しい	-10.8508
では無い	-10.8509
なき	-10.8512
逃がし	-10.8512
エリア	-10.8513
出された	-10.8515
書いてある	-10.8515
▁アレ	-10.8518
どこかに	-10.8518
軍を	-10.8518
セリフ	-10.8519
帆	-10.8519
認識	-10.8519
補給	-10.852
鑑定	-10.852
値段	-10.852
お許し	-10.852
司令官	-10.8521
追加	-10.8521
内緒	-10.8521
王妃	-10.8523
忍び	-10.8523
能力者	-10.8525
島の	-10.8527
国民	-10.853
しているんだ	-10.8531
かえって	-10.8532
魔獣	-10.8534
の主	-10.8534
どんだけ	-10.8538
気をつけ	-10.854
エリー	-10.8542
上級	-10.8544
になろう	-10.8546
ないでよ	-10.8546
ぢ	-10.8548
任せた	-10.855
られると	-10.855
そうでしょう	-10.8552
簡単な	-10.8552
▁あの時	-10.8555
買え	-10.8557
田中	-10.8559
を助け	-10.8559
惜しい	-10.8559
お疲れ様	-10.856
んのよ	-10.8563
あそこに	-10.8565
どうするつもり	-10.8567
ものね	-10.8572
心に	-10.8573
▁クソッ	-10.8575
▁我々は	-10.8579
落とし	-10.858
▁ここまで	-10.8581
だという	-10.8582
意地	-10.8585
クロノ様	-10.8586
ユウちゃん	-10.8587
したくない	-10.8587
はなし	-10.8587
させろ	-10.8587
有名な	-10.8588
血が	-10.8588
博	-10.8591
季	-10.8592
粗	-10.8592
兎	-10.8592
したかった	-10.8592
評判	-10.8593
予算	-10.8593
冷静	-10.8593
同盟	-10.8594
チェック	-10.8594
すり	-10.8595
発表	-10.8597
ファイ	-10.8598
ひどく	-10.8599
の言う通り	-10.86
娘を	-10.86
しゃべ	-10.8604
そこら	-10.8605
ブレ	-10.8605
▁姫様	-10.8607
いくらなんでも	-10.8613
感心	-10.8617
進む	-10.862
待っている	-10.862
お嬢ちゃん	-10.8623
なさって	-10.8627
と言っても	-10.8627
照れ	-10.8628
娘の	-10.8629
てるの	-10.863
だいたい	-10.8632
下さいまし	-10.8632
ぜぇ	-10.8633
先は	-10.8636
をし	-10.8636
嘘だ	-10.8637
ことか	-10.8638
お金を	-10.8639
飾	-10.8652
アアア	-10.8653
どういった	-10.8654
あなた達	-10.8655
ありえない	-10.8658
▁お主	-10.8659
挟	-10.8666
貧乏	-10.8666
よっぽど	-10.8666
明らかに	-10.8666
触って	-10.8666
でかい	-10.8666
わけにはいかない	-10.8666
高校生	-10.8666
参り	-10.8667
メニュー	-10.8667
支度	-10.8668
魔法少女	-10.867
喜ぶ	-10.867
一人の	-10.8671
みたいだし	-10.8671
これより	-10.8672
▁随分と	-10.8673
に違いない	-10.8674
どうしたらいい	-10.8675
これからどうする	-10.8676
昼間	-10.868
戦士	-10.8681
頑張った	-10.8686
するため	-10.8687
となり	-10.8688
囲	-10.8689
とかは	-10.8691
らく	-10.8692
▁西	-10.8693
如	-10.8694
▁ぼく	-10.8699
時も	-10.8701
▁大丈夫です	-10.8704
エリス	-10.8708
させない	-10.8711
嫌です	-10.8713
外の	-10.8714
魔法で	-10.8714
向う	-10.8718
手紙を	-10.872
思ひ	-10.8723
けば	-10.8726
んだろうが	-10.8728
▁いやあ	-10.8729
に入り	-10.8732
こんなことを	-10.8733
一個	-10.8734
透	-10.8738
▁お父様	-10.8739
憑	-10.874
暖	-10.874
剤	-10.874
藩	-10.874
維持	-10.874
嬉しく	-10.874
参考	-10.874
押さえ	-10.8741
の意味	-10.8743
ついてる	-10.8745
弘子	-10.8745
ジョン	-10.8748
壊れ	-10.8749
悩み	-10.8749
貴族の	-10.875
帰ってくる	-10.8753
▁さてと	-10.8753
▁それよりも	-10.8754
ガラ	-10.8756
あげるわ	-10.8757
御座	-10.8758
顔色	-10.8761
とすれば	-10.8762
てっきり	-10.8762
グレ	-10.8762
話題	-10.8764
単	-10.8764
と違って	-10.8768
魔法は	-10.8768
ついている	-10.8773
お姉さま	-10.8775
ゼロ	-10.8775
ざる	-10.8777
▁クソ	-10.8777
今も	-10.8781
▁絶対に	-10.8782
へえ	-10.8782
スさん	-10.8782
状況を	-10.8788
フィリ	-10.8789
そりゃあ	-10.879
もち	-10.8792
速い	-10.8793
▁うわあ	-10.8797
今でも	-10.8797
俺たちの	-10.8799
事件の	-10.8804
分けて	-10.8806
に向かう	-10.8809
獄	-10.8811
何よ	-10.8812
測	-10.8813
評	-10.8813
下着	-10.8814
をお願いします	-10.8814
彦	-10.8814
そっちは	-10.8814
殻	-10.8814
斎藤	-10.8815
美少女	-10.8818
▁御意	-10.8819
握	-10.8823
いいでしょう	-10.8824
皇子	-10.8824
かっこいい	-10.8824
気を付け	-10.8825
何があったの	-10.8825
くれませんか	-10.8827
殿と	-10.8827
▁さう	-10.8833
気の毒	-10.8836
召し	-10.8841
思います	-10.8841
ますよね	-10.8842
ちが	-10.8844
たちも	-10.8845
手配	-10.8845
フリ	-10.8846
アア	-10.8846
サマ	-10.8851
絡	-10.8851
欲し	-10.8853
ビン	-10.8853
ボクは	-10.8853
替	-10.8855
あんたも	-10.8856
同じく	-10.8856
んでしょうね	-10.8858
!!!!!!	-10.8858
ノン	-10.886
放って	-10.8862
済んだ	-10.8863
ディス	-10.8864
ファル	-10.8865
はいつも	-10.8865
僕には	-10.8865
んですけどね	-10.8868
の色	-10.8868
ハハ	-10.887
風の	-10.887
あかり	-10.8872
毎	-10.8873
付いた	-10.8873
御覧	-10.8875
最強	-10.8875
▁これ以上	-10.8876
』『	-10.8879
伺	-10.8879
るんだから	-10.888
が高い	-10.8882
可愛く	-10.8882
あっても	-10.8884
穂	-10.8885
倒して	-10.8888
宙	-10.8889
芽	-10.8889
スーツ	-10.889
の仕業	-10.889
予備	-10.889
こんな感じ	-10.8891
暴走	-10.8891
▁大体	-10.8891
テレビ	-10.8891
歩兵	-10.8892
浮気	-10.8894
叔父さん	-10.8895
女だ	-10.8897
なんなんだ	-10.89
中尉	-10.8902
神経	-10.8903
こっちが	-10.8904
四十	-10.8904
何うも	-10.8905
抜く	-10.8905
ううう	-10.8907
致しました	-10.8916
ゆー	-10.8917
つかま	-10.8917
知っていた	-10.892
オレの	-10.8921
五人	-10.8925
体力	-10.8926
主様	-10.8927
なさった	-10.8927
ガード	-10.8927
▁駄目	-10.8928
責め	-10.8931
ってことですか	-10.8931
この野郎	-10.8931
運んで	-10.8931
スク	-10.8932
好きな人	-10.8933
おおおおおお	-10.8934
くんが	-10.8937
と思わない	-10.8938
巨	-10.894
先輩の	-10.8941
無用	-10.8944
立てて	-10.8945
求	-10.8947
あた	-10.895
とはな	-10.8953
を倒す	-10.8954
乗れ	-10.8958
始める	-10.8959
元康	-10.8959
障	-10.8963
なさそうだ	-10.8964
凡	-10.8965
ちくしょう	-10.8965
▁無論	-10.8967
だけなら	-10.8967
芸術	-10.8968
勢い	-10.8969
ほんとう	-10.8969
気持	-10.8971
見ても	-10.8975
はないか	-10.8976
受けた	-10.8978
考へ	-10.8979
▁うおっ	-10.8981
制御	-10.8982
ジル	-10.8982
勧め	-10.8983
れません	-10.8986
大変です	-10.8988
▁〈	-10.8988
▁いいや	-10.8991
していました	-10.8996
▁ちょっと待て	-10.8997
ろうか	-10.8999
してくれて	-10.9
めに	-10.9001
はございません	-10.9002
認	-10.9007
してほしい	-10.9011
▁後は	-10.9011
▁夏	-10.9012
こんにちは	-10.9013
役に	-10.9014
ましたけど	-10.9017
▁パパ	-10.9018
さん達	-10.9018
何処へ	-10.9022
▁なあに	-10.9023
▁仕事	-10.9024
流石	-10.9027
られても	-10.9027
もお	-10.9029
勘弁して	-10.9034
▁むっ	-10.9036
謀	-10.9036
来てくれる	-10.9036
見えます	-10.904
俺様	-10.9041
施	-10.9041
蝶	-10.9041
虐	-10.9042
お断り	-10.9042
映像	-10.9042
迎撃	-10.9042
百姓	-10.9042
人殺し	-10.9044
鉄砲	-10.9045
海軍	-10.9045
姉妹	-10.9047
ユーキ	-10.9048
人がいる	-10.9048
エルネア	-10.9049
元康くん	-10.9051
▁犯人	-10.9052
出さ	-10.9052
クズ	-10.9053
そういった	-10.9054
調整	-10.9054
イカ	-10.9054
訪	-10.9057
イク	-10.9058
んだもん	-10.9059
と言い	-10.9062
こっちへ	-10.9062
十八	-10.9063
残念だ	-10.9065
組み	-10.9068
騙され	-10.9072
方も	-10.9075
聞かせ	-10.9076
のおかげで	-10.9081
を止め	-10.9081
▁バ	-10.9081
どちらか	-10.9082
そうですよ	-10.9084
言うなよ	-10.9084
かもしれませんね	-10.9087
そんな話	-10.9088
そういうわけ	-10.909
俺だって	-10.909
奴に	-10.9092
怒ってる	-10.9092
巻き込まれ	-10.9094
ぇー	-10.9095
それよりも	-10.9099
するもの	-10.9104
なさいました	-10.9105
降りて	-10.9107
基	-10.9109
戻ってきた	-10.9111
獣人	-10.9112
▁今回は	-10.9115
綾	-10.9116
▁ケイ	-10.9116
使わない	-10.9117
肝	-10.9118
俗	-10.9118
忌	-10.9118
f	-10.9118
図書館	-10.9118
のだけど	-10.9119
某	-10.9119
侯爵	-10.9119
みせる	-10.9119
衣装	-10.9121
だろうけど	-10.9121
キャン	-10.9121
交代	-10.9122
どのように	-10.9123
▁子供	-10.9123
▁だめ	-10.9124
さんから	-10.9124
操作	-10.9125
手加減	-10.9125
▁アイ	-10.9132
働く	-10.9135
何しろ	-10.9136
どき	-10.9139
ただけ	-10.9142
ベン	-10.9145
だったけど	-10.9146
王家	-10.9151
んなよ	-10.9153
あの人は	-10.9154
家庭	-10.9155
▁なんの	-10.9155
気になった	-10.9156
レイン	-10.9156
出番	-10.9161
があるんです	-10.9161
だもの	-10.9161
本当だ	-10.9163
▁上	-10.9164
失敗した	-10.9167
晴れ	-10.9167
▁やめて	-10.917
みたいなの	-10.9172
援軍	-10.9172
▁わあ	-10.9178
いただける	-10.9178
シャー	-10.9178
だとしたら	-10.9179
▁はて	-10.9181
伝説	-10.9182
▁いいの	-10.9183
▁シャ	-10.9183
者たち	-10.9184
いうこと	-10.9184
すぎた	-10.9185
お守り	-10.9186
くらいで	-10.9188
から聞いた	-10.9191
ああああああああ	-10.9191
どろ	-10.9195
航空	-10.9195
乗せ	-10.9195
鎖	-10.9196
宴	-10.9196
庇	-10.9196
手伝う	-10.9196
Lv	-10.9196
すっごく	-10.9197
要請	-10.9197
▁皆さん	-10.9199
がありまして	-10.9199
キモ	-10.9201
アウト	-10.9206
ちまう	-10.921
おばさん	-10.921
へへへ	-10.9212
然し	-10.9214
男を	-10.9214
クラン	-10.9215
着いて	-10.9216
ゐた	-10.9217
いたのです	-10.9217
此処に	-10.9218
はいかが	-10.9218
セト	-10.9218
ないわね	-10.9218
るところ	-10.9218
本当か	-10.9221
神官	-10.9222
気にしないで	-10.9222
どうしました	-10.9228
どうしようか	-10.9228
驚き	-10.9228
中隊	-10.9228
の人たち	-10.9229
▁面白い	-10.9235
を知って	-10.9236
リリ	-10.9236
信じる	-10.9238
わかったよ	-10.9239
アマ	-10.9241
たべ	-10.9242
旨	-10.9242
出てきた	-10.9244
ませんね	-10.9244
トール	-10.9246
ドゥ	-10.9246
城を	-10.9247
生き物	-10.9251
少しでも	-10.9251
何やってんだ	-10.9254
くそっ	-10.9254
ましたから	-10.9255
はどうだった	-10.9256
▁てめえ	-10.9257
やるぞ	-10.9259
増える	-10.9259
しなくて	-10.9261
斯	-10.9263
を入れて	-10.9263
最終	-10.9264
認める	-10.9265
そんな感じ	-10.9266
勤め	-10.9267
▁3	-10.9267
と思うぞ	-10.9268
あなたと	-10.9269
になるか	-10.9269
▁うそ	-10.927
子供を	-10.9272
屈	-10.9272
句	-10.9273
内部	-10.9273
いらっしゃるの	-10.9273
丘	-10.9274
椅子	-10.9274
嶋	-10.9274
ドイツ	-10.9274
履	-10.9274
大統領	-10.9274
拠点	-10.9274
メートル	-10.9275
じゃぁ	-10.9275
要塞	-10.9275
ヴァル	-10.9276
になるんだ	-10.9276
永遠	-10.9276
派遣	-10.9276
▁頼む	-10.9278
つてゐ	-10.9279
はあまり	-10.9279
強制	-10.9279
性能	-10.928
シェル	-10.9281
の話を	-10.9281
だったんです	-10.9282
じゅう	-10.9282
▁おら	-10.9283
戦える	-10.9284
度胸	-10.9287
がついて	-10.9288
殿様	-10.9297
にぃ	-10.9297
そう思って	-10.9298
すんだ	-10.9299
何処か	-10.9299
いじ	-10.93
王宮	-10.93
くじ	-10.9301
あるよ	-10.9302
▁うふふ	-10.9304
んだろうね	-10.9307
クレイ	-10.9307
っっっ	-10.9308
わけか	-10.9311
工場	-10.9312
ブルー	-10.9312
あたしに	-10.9316
越し	-10.9321
年の	-10.9322
の上で	-10.9327
は必要	-10.9328
ましたので	-10.9337
るだろ	-10.9338
ちゅう	-10.9343
田君	-10.9343
揃って	-10.9344
こった	-10.9345
百年	-10.9345
にかけて	-10.9345
▁土方さん	-10.9347
昇	-10.9347
珍	-10.935
正直に	-10.9351
功	-10.9352
陥	-10.9352
甚	-10.9353
県	-10.9353
繁	-10.9353
皿	-10.9353
机	-10.9353
けっこう	-10.9353
祝福	-10.9353
食え	-10.936
ちょいと	-10.9361
驚か	-10.9361
駄目です	-10.9363
で御座います	-10.9363
カティ	-10.9368
アアアアアア	-10.9371
に関する	-10.9375
どうかしら	-10.9376
を作った	-10.9378
ええっ	-10.9379
受ける	-10.9379
▁パ	-10.9379
となった	-10.9379
お出で	-10.9381
済まない	-10.9382
なすって	-10.9384
城の	-10.9385
だろうから	-10.9385
面白そう	-10.9387
いくつか	-10.9387
▁どうしました	-10.9387
▁ただし	-10.9387
なくとも	-10.9391
▁どういう	-10.9393
締め	-10.9393
▁あの人	-10.9394
選手	-10.9394
わぬ	-10.9397
▁山	-10.9404
なければなりません	-10.9407
資	-10.9408
なんだい	-10.9409
経って	-10.9411
せない	-10.9413
ッッッ	-10.9419
ははっ	-10.9422
ちなみに	-10.9423
果たして	-10.9425
イイイ	-10.9428
ぐらいは	-10.9432
婿	-10.9432
沙汰	-10.9432
逃がす	-10.9433
どうだろう	-10.9433
調子に乗	-10.9433
混乱	-10.9433
並べ	-10.9436
ヒャ	-10.9436
▁いらっしゃいませ	-10.9436
父様	-10.9437
できなかった	-10.9437
勤	-10.9439
入れる	-10.9441
伯	-10.9443
子供の	-10.9446
っちまう	-10.9446
来たぞ	-10.9446
中佐	-10.9447
▁あいよ	-10.9449
何か用	-10.9451
そち	-10.9455
ありますよ	-10.9456
今度こそ	-10.9456
好きで	-10.9457
はあった	-10.9459
▁すまない	-10.946
イイ	-10.9461
忙し	-10.9461
▁雪	-10.9461
まかせ	-10.9462
の意見	-10.9462
の相手	-10.9463
呼び出し	-10.9468
ちゃいました	-10.9468
だけどね	-10.9472
だしな	-10.9472
もらい	-10.9473
▁一度	-10.9474
ジェイ	-10.9474
顔して	-10.9475
上から	-10.9476
いませんでした	-10.9479
服を	-10.948
キース	-10.948
我が軍	-10.948
ブレス	-10.9483
▁せめて	-10.9483
▁ふぇぇぇ	-10.9483
心配する	-10.9484
そこへ	-10.9484
模	-10.9485
▁だいたい	-10.9487
私たちが	-10.9491
屋に	-10.9491
女の子に	-10.9492
アヤ	-10.9493
換え	-10.9493
エッ	-10.9494
の血	-10.9496
▁そうじゃ	-10.9496
────	-10.9497
大したこと	-10.9497
じゃあない	-10.9498
すき	-10.9499
んじゃね	-10.95
彼に	-10.9502
彼奴	-10.9503
死の	-10.9504
ごめんな	-10.9508
▁撃て	-10.9509
思ったより	-10.951
▁その通り	-10.9511
歴	-10.9512
貞	-10.9512
珠	-10.9512
ていうか	-10.9512
傾	-10.9512
サービス	-10.9512
選択	-10.9512
複雑	-10.9512
ラク	-10.9513
段階	-10.9513
ギュ	-10.9515
表情	-10.9516
腕が	-10.9517
▁ぴ	-10.9517
電車	-10.9518
▁花	-10.952
倒せ	-10.952
表現	-10.952
の街	-10.9522
テロ	-10.9524
以下	-10.9525
もしない	-10.9526
リエ	-10.9529
待ってください	-10.953
センス	-10.9535
▁そうですよ	-10.9535
姐さん	-10.9537
これほど	-10.9538
見当	-10.9546
ブッ	-10.9547
読んだ	-10.9551
いけば	-10.9554
らなくて	-10.9555
いたか	-10.9556
指示	-10.9556
されない	-10.9557
じゃないんだ	-10.9558
してしまう	-10.956
怪我を	-10.9561
お待ちください	-10.9561
わけがない	-10.9564
何回	-10.9565
▁ずっと	-10.9565
ようになって	-10.9571
お客	-10.9572
めぇ	-10.9572
軍に	-10.9575
もう一人	-10.9576
クロノ	-10.9577
ゲン	-10.9588
何を言っている	-10.9589
猟	-10.9593
捉	-10.9593
湧	-10.9593
澤	-10.9593
垣	-10.9593
述	-10.9593
阿呆	-10.9593
夏休み	-10.9596
課長	-10.9597
司令部	-10.96
何ん	-10.9601
リアンカ	-10.9603
大変だった	-10.9606
騒	-10.9606
親方	-10.9609
期間	-10.9609
とは思う	-10.9609
一つだけ	-10.961
の中の	-10.9612
してあげる	-10.9616
を行う	-10.9617
▁ダ	-10.9618
だけだよ	-10.9623
あるもの	-10.9625
ぎゃあ	-10.9625
村長	-10.9628
見られ	-10.963
を開け	-10.9633
した時	-10.9638
いるよ	-10.9639
題	-10.964
始まる	-10.964
一時間	-10.9642
▁あとは	-10.9642
あなた様	-10.9644
ぁああ	-10.9645
いいですね	-10.9647
さんには	-10.9648
頑張ります	-10.9648
あっし	-10.9649
正面	-10.965
▁誰も	-10.9655
厄介な	-10.9655
言ってるの	-10.9656
お部屋	-10.9656
待ってて	-10.9656
ツキ	-10.9656
オムダーマン	-10.9658
という事は	-10.9659
悪いな	-10.966
そのこと	-10.966
今年は	-10.9665
ミリア	-10.9665
貨	-10.9665
知らねえ	-10.9669
人には	-10.9669
子供が	-10.9671
展	-10.9672
干	-10.9672
抗	-10.9672
▁何の	-10.9673
器用	-10.9673
紗	-10.9673
喉	-10.9674
鶏	-10.9674
走れ	-10.9675
直ぐ	-10.9676
なんという	-10.9676
相応	-10.9677
欲しかった	-10.9677
を買って	-10.9677
遅かった	-10.9678
飛べ	-10.968
名誉	-10.9683
引き受け	-10.9683
▁風	-10.9684
如き	-10.9684
受け取って	-10.9685
終わりだ	-10.9686
火星	-10.9687
がれ	-10.9688
ところです	-10.969
無駄に	-10.9691
ないかな	-10.9691
あははは	-10.9694
ものなら	-10.9696
としよう	-10.9697
▁こいつは	-10.9699
ないからな	-10.9699
した方が	-10.97
階層	-10.9702
ニス	-10.9703
まともに	-10.9703
船を	-10.9703
インド	-10.9708
この町	-10.9709
の木	-10.9712
がないと	-10.9712
好きなの	-10.9713
しめ	-10.9714
察し	-10.9715
リスト	-10.9715
ンダ	-10.9718
理解して	-10.9718
さないと	-10.972
▁例えば	-10.972
作品	-10.9722
ゴロ	-10.9723
のだけれど	-10.9723
▁仕方ない	-10.9724
終わらせ	-10.9734
▁助けて	-10.9735
這	-10.9736
オウ	-10.9737
の力を	-10.9738
罪を	-10.9738
▁何でも	-10.9743
自分から	-10.9743
らないと	-10.9747
ス様	-10.9747
に関して	-10.9748
と聞いた	-10.9749
から来た	-10.9749
纏	-10.975
貴女の	-10.975
を読んで	-10.9754
んぼ	-10.9756
摩	-10.9756
卑	-10.9756
▁よっしゃ	-10.9757
あっさり	-10.9757
わせる	-10.9757
階級	-10.9758
優勝	-10.9762
おおおおお	-10.9762
トレ	-10.9763
遠慮なく	-10.9763
宝石	-10.9763
果て	-10.9764
揃え	-10.9765
おはようございます	-10.9767
ちがい	-10.9768
なわけ	-10.9769
殺してやる	-10.9775
ああっ	-10.9777
襲って	-10.9779
忘れてた	-10.9783
さし	-10.9784
メイン	-10.9784
じょ	-10.9787
他の人	-10.979
平民	-10.979
竜の	-10.9792
食べられ	-10.9794
たりする	-10.9794
落ちる	-10.9796
見てた	-10.9797
真剣	-10.9799
セー	-10.9801
▁そちら	-10.9802
理由が	-10.9803
かあさん	-10.9804
まち	-10.9805
と思うのですが	-10.9806
▁今回の	-10.9807
という話	-10.9808
回る	-10.9811
耐え	-10.9812
ゴール	-10.9812
土方さん	-10.9813
を作り	-10.9813
ちゅ	-10.9816
じゃないわよ	-10.9818
祖父	-10.982
いけねえ	-10.9821
してやろう	-10.9827
▁彼は	-10.983
チュー	-10.983
肉体	-10.983
直して	-10.983
其方	-10.9832
ドリ	-10.9833
▁あのー	-10.9835
そんなところ	-10.9836
晒	-10.9839
膳	-10.9839
餅	-10.9839
漁	-10.9839
いまして	-10.9839
行動を	-10.9839
どうでも	-10.984
尻尾	-10.984
ロク	-10.9841
紅茶	-10.9842
なんにも	-10.9842
商品	-10.9843
時分	-10.9843
義務	-10.9843
結構です	-10.9843
んスか	-10.9845
退治	-10.9845
柏木	-10.9845
川の	-10.9845
答えて	-10.9847
レオン	-10.9847
美咲	-10.9851
▁ただの	-10.9851
住む	-10.9852
食べられる	-10.9856
巨大	-10.986
が原因	-10.9862
真面目に	-10.9865
甘え	-10.9867
顔に	-10.9868
ものだから	-10.987
いるぞ	-10.9871
ものと	-10.9875
を殺して	-10.9877
▁どうしたんですか	-10.9879
他人の	-10.9879
めえ	-10.9879
やつが	-10.9881
のやつ	-10.9883
どっちか	-10.9883
クリア	-10.9884
って事は	-10.9884
硬	-10.9886
どうしましょう	-10.9891
じゃないけど	-10.9892
伸	-10.9893
ようとした	-10.9893
いくの	-10.9895
ですぅ	-10.9896
ノリ	-10.9897
用件	-10.9898
しないの	-10.9899
ことがあった	-10.9899
▁全部	-10.99
全軍	-10.99
悩んで	-10.9901
理由で	-10.9902
ちや	-10.9903
フフフ	-10.9903
島さん	-10.9903
皇女	-10.9905
だとか	-10.9905
たんです	-10.9906
から離れ	-10.9907
と言うこと	-10.9907
▁次の	-10.9908
こちらで	-10.9909
いろいろと	-10.9911
した事	-10.9913
認めて	-10.9918
浴	-10.9919
散ら	-10.992
なんでこんな	-10.9922
怠	-10.9922
芋	-10.9922
鼠	-10.9922
前提	-10.9924
指揮官	-10.9925
魔法が	-10.9928
遊ぶ	-10.9928
パワー	-10.993
思いません	-10.9932
連れて行って	-10.9933
耳に	-10.9934
族の	-10.9937
のようです	-10.9939
減ら	-10.9939
話をして	-10.994
連れてきた	-10.9941
彼女を	-10.9942
諦めて	-10.9942
崩れ	-10.9943
隠す	-10.9943
▁嫌だ	-10.9947
飲んだ	-10.9949
終わりました	-10.9951
一度も	-10.9956
こんど	-10.9958
何言って	-10.9958
をしよう	-10.9959
へぇ	-10.9964
いたのに	-10.9966
位の	-10.9967
んだけどさ	-10.9967
に近い	-10.9969
はどうなった	-10.9971
フライ	-10.9971
世界を	-10.9972
どうなるか	-10.9972
あげるから	-10.9972
▁ここから	-10.9973
接触	-10.9974
尽	-10.9979
ふー	-10.998
スカ	-10.9984
王子様	-10.9987
入っている	-10.9988
二百	-10.999
の生活	-10.999
望んで	-10.9996
寿	-10.9998
何事	-11.0001
飼	-11.0001
撮影	-11.0003
ぇぇ	-11.0003
ものじゃない	-11.0006
脈	-11.0006
鎮	-11.0006
爪	-11.0006
醜	-11.0006
肥	-11.0006
贈	-11.0006
岐	-11.0006
環境	-11.0006
捕らえ	-11.0006
アステル	-11.0007
遺跡	-11.0007
自分達	-11.0008
聞こう	-11.0009
世に	-11.001
ルッツ	-11.0014
どうでしょうか	-11.0015
だったね	-11.0017
気に入った	-11.0017
時間も	-11.0018
神社	-11.0018
幸福	-11.0019
ておく	-11.0025
そのもの	-11.0027
くれれば	-11.0029
屋敷に	-11.003
母ちゃん	-11.003
覚えてる	-11.0031
撫で	-11.0032
の方で	-11.0033
グッ	-11.0033
その程度	-11.0037
今度の	-11.0039
ぐれ	-11.004
本物の	-11.0041
と同	-11.0042
ッテ	-11.0045
▁ふざけるな	-11.0045
大丈夫だった	-11.0046
って思った	-11.0047
おきたい	-11.0051
だったかな	-11.0052
無理に	-11.0054
ごとき	-11.0059
見かけ	-11.0065
ヤン	-11.0065
フェリ	-11.0066
勝って	-11.0067
ないもの	-11.0068
良いけど	-11.0068
用心	-11.0069
訊いて	-11.0071
って聞いた	-11.0074
概	-11.0083
ュ	-11.0084
つれて	-11.0085
奉	-11.0086
を信じて	-11.0087
よかったら	-11.0087
液	-11.0088
なんてこと	-11.0089
あの娘	-11.009
スライム	-11.0091
不味い	-11.0091
方法は	-11.0091
興奮	-11.0091
容赦	-11.0091
柚那	-11.0091
汚れ	-11.0091
ショック	-11.0093
絶望	-11.0093
かなあ	-11.0094
するまで	-11.0094
on	-11.0096
宗教	-11.0096
さないで	-11.0097
運び	-11.0098
ヤバイ	-11.0101
兼	-11.0102
ネス	-11.0102
恐怖	-11.0103
を倒した	-11.0105
いいじゃない	-11.0108
だけが	-11.0109
海華	-11.0112
軍は	-11.0113
コツ	-11.0115
わけです	-11.0117
出さない	-11.0117
狭い	-11.0118
店長	-11.0119
▁北	-11.0121
言葉が	-11.0122
▁うわー	-11.0123
これだけの	-11.0123
気をつけろ	-11.0125
アウ	-11.0126
程度で	-11.0126
戯	-11.013
手は	-11.0131
こともない	-11.0133
死なない	-11.0133
祭り	-11.0135
という訳	-11.0135
冒険	-11.0139
けない	-11.0142
だけなの	-11.0142
血の	-11.0145
実行	-11.0145
───	-11.0145
それだと	-11.0146
ありえ	-11.0147
ねばならぬ	-11.0147
ブリ	-11.0148
売れ	-11.0148
▁いただきます	-11.0149
行ったの	-11.015
ようにして	-11.0151
目に遭	-11.0155
二人が	-11.0156
ができた	-11.0157
ですっ	-11.0159
あいつの	-11.0162
きいて	-11.0164
学校で	-11.0164
寸	-11.0164
▁おのれ	-11.0165
金は	-11.0166
訳ない	-11.0169
やな	-11.017
ハア	-11.0173
どうなってる	-11.0173
枕	-11.0176
ザイツ	-11.0176
喫	-11.0176
▁うるせえ	-11.0176
滝	-11.0176
慶	-11.0176
殆ど	-11.0177
フィールド	-11.0177
工房	-11.0177
故郷	-11.0177
貴方達	-11.0178
保証	-11.0178
べつに	-11.0179
いいじゃん	-11.018
▁遅い	-11.0181
再び	-11.0182
愛してる	-11.0183
喋って	-11.0184
ではある	-11.0185
と言っている	-11.0186
帰ったら	-11.0187
ジーク	-11.0188
形で	-11.0189
何をして	-11.0191
どうなの	-11.0192
ダンス	-11.0193
を見つけ	-11.0193
よろしいのですか	-11.0194
たもの	-11.0195
崎さん	-11.0198
安く	-11.0201
ような気がする	-11.0202
おぉ	-11.0205
折れ	-11.0205
最大	-11.0206
ヘイ	-11.0207
▁あんたは	-11.0207
気にする	-11.0208
心地	-11.0209
おかえり	-11.0209
いいんだけど	-11.021
どうしてここに	-11.0212
やること	-11.0214
きたんだ	-11.0218
11	-11.0218
顔をして	-11.022
▁イヤ	-11.0222
資金	-11.0223
いいんじゃないか	-11.0225
ところまで	-11.0226
貰える	-11.0228
寝てる	-11.023
犯人は	-11.023
テイ	-11.0233
でございますが	-11.0235
ならいい	-11.0236
ないよね	-11.0238
クラスの	-11.0239
一部	-11.0243
んでる	-11.0244
メアリ	-11.0244
キツ	-11.0246
ボル	-11.0246
されると	-11.0248
というのも	-11.0249
塗	-11.0251
十六	-11.0252
なにこれ	-11.0254
もっと早く	-11.0254
わからないけど	-11.0258
みようか	-11.0259
くなりました	-11.026
楽しみだ	-11.0261
ネコ	-11.0262
余計なこと	-11.0262
烈	-11.0263
籍	-11.0263
取り敢えず	-11.0263
酸	-11.0263
お義父さん	-11.0263
隆	-11.0263
スカート	-11.0263
蘭	-11.0263
稽古	-11.0263
思考	-11.0263
倉庫	-11.0264
不審	-11.0264
ておる	-11.0265
防具	-11.0265
子爵	-11.0267
四郎	-11.0267
ご覧	-11.0268
▁まだまだ	-11.0269
有利	-11.027
ふり	-11.027
五百	-11.0273
▁よーし	-11.0273
ギルドに	-11.028
負けない	-11.0281
おらぬ	-11.0281
似た	-11.0281
夕方	-11.0283
おいた	-11.0289
言を	-11.0289
にーちゃん	-11.0291
建て	-11.0292
会いたい	-11.0294
▁戦争	-11.0295
こと言って	-11.0295
の中へ	-11.0296
普通は	-11.0298
やつは	-11.0301
▁人の	-11.0301
かどうかは	-11.0302
すこと	-11.0308
驚いて	-11.0308
▁貴方は	-11.0309
似ている	-11.0312
世界で	-11.0314
になつて	-11.0314
何かある	-11.0315
情けない	-11.0316
たんだけど	-11.0318
聞こえ	-11.0321
どんな人	-11.0321
狭	-11.0322
▁わたしも	-11.0323
シャン	-11.0324
山さん	-11.0326
▁うー	-11.0326
おうと	-11.0328
はかなり	-11.0329
るもん	-11.033
俺のこと	-11.0331
ここに来た	-11.0331
▁てか	-11.0333
を探し	-11.0334
の部屋に	-11.0335
勝てない	-11.0336
剣の	-11.0339
ことがあります	-11.0339
リヤ	-11.0341
私だけ	-11.0343
言います	-11.0344
いいね	-11.0344
千代	-11.0345
監	-11.0348
柚	-11.0348
来年	-11.0348
郡	-11.0349
版	-11.0349
贅沢	-11.0349
どういたしまして	-11.035
壮	-11.035
潮	-11.035
分かんない	-11.035
いちいち	-11.035
▁せ	-11.0352
るる	-11.0353
放置	-11.0353
結論	-11.0353
おいおい	-11.0353
喜び	-11.0353
しかいない	-11.0354
しませんか	-11.0355
しなくていい	-11.0359
タマ	-11.0362
話しかけ	-11.0364
▁艦長	-11.0365
太刀	-11.0366
ウラ	-11.0366
続く	-11.0369
這入	-11.037
といいます	-11.0371
朝食	-11.0371
だと思った	-11.0371
やめなさい	-11.0375
ったりする	-11.0375
追いかけ	-11.0376
デー	-11.0378
失礼な	-11.0378
見張り	-11.0378
体は	-11.0378
綺麗だ	-11.038
万円	-11.038
ルーク	-11.038
よせ	-11.0381
思ってる	-11.0383
▁そんなことは	-11.0393
行きましょうか	-11.0395
例えば	-11.0395
なんですよね	-11.0398
んですもの	-11.0398
と思ったの	-11.04
する必要	-11.0401
黙れ	-11.0401
によると	-11.0402
只今	-11.0407
ようじゃ	-11.0407
▁アン	-11.0408
見捨て	-11.041
たほうがいい	-11.0413
務め	-11.0413
▁ひどい	-11.0413
の正体	-11.0414
分かります	-11.0414
答	-11.0417
わねぇ	-11.0419
最高の	-11.0422
閉め	-11.0423
ってしまった	-11.0424
〜〜	-11.0425
ミリ	-11.0425
の話は	-11.0428
特殊	-11.043
▁本当は	-11.0434
人とも	-11.0435
べきだ	-11.0436
探す	-11.0436
痴	-11.0437
袖	-11.0437
くれたの	-11.0437
エンチャント	-11.0437
寧	-11.0437
立った	-11.0437
おじいちゃん	-11.0437
一生懸命	-11.0437
筒	-11.0437
蘇	-11.0437
偵察	-11.0437
於	-11.0437
渡した	-11.0438
理屈	-11.0438
落ち着いた	-11.0439
デュ	-11.0439
の位置	-11.044
舞台	-11.044
知恵	-11.0441
ことはありません	-11.0441
先祖	-11.0441
してんの	-11.0443
捕まえ	-11.0444
地図	-11.0445
ライエル	-11.0446
たとえば	-11.0446
ごく	-11.0451
行われ	-11.0452
なんざ	-11.0452
起こす	-11.0455
めが	-11.046
方針	-11.0464
云った	-11.0467
待た	-11.0467
マサ	-11.0469
ズル	-11.0471
が出てくる	-11.0473
になっちゃった	-11.0475
学者	-11.0478
楽し	-11.0479
に連絡	-11.048
街の	-11.0483
▁あいつら	-11.0484
果た	-11.0484
大切に	-11.0484
この場	-11.0485
られなかった	-11.0485
どうするんですか	-11.0488
ちと	-11.0493
部屋の	-11.0493
▁その前に	-11.0498
のうちに	-11.0499
優秀な	-11.05
悲	-11.05
捨てる	-11.0502
この村	-11.0502
おきましょう	-11.0505
▁なんだい	-11.0507
付かない	-11.0508
その方が	-11.051
お待たせ	-11.0515
嫌われ	-11.0516
おまえの	-11.0517
頂きたい	-11.0518
間違	-11.0524
洒落	-11.0526
瓶	-11.0526
似たような	-11.0526
覚えている	-11.0528
ぎり	-11.0531
電気	-11.0531
何となく	-11.0532
になられ	-11.0532
集合	-11.0533
ペット	-11.0534
良さそう	-11.0534
▁ああっ	-11.0535
お前等	-11.0536
こんな所に	-11.0536
リナ	-11.0537
ミミ	-11.0537
呼ばれた	-11.0538
▁こっちは	-11.0539
空いて	-11.0547
楽しんで	-11.0549
▁マジかよ	-11.0552
この状況	-11.0557
の旦那	-11.0558
▁あっち	-11.0563
然と	-11.0563
洗って	-11.0566
▁彼等は	-11.0567
村さん	-11.0569
▁何だか	-11.057
シャル	-11.057
を助ける	-11.057
▁じ	-11.0572
見つかる	-11.0573
くだされ	-11.0573
続いて	-11.0574
んじゃなかった	-11.0575
久しぶりに	-11.0575
標	-11.0581
楽しく	-11.0583
なんでしょ	-11.0584
置け	-11.0585
考	-11.0586
はしません	-11.0587
を切り	-11.0589
の様な	-11.0589
何年	-11.059
となれば	-11.059
してみる	-11.0591
トさん	-11.0593
情報が	-11.0594
もいいですか	-11.0595
メラ	-11.0598
おるのか	-11.0599
気にするな	-11.0599
しますが	-11.06
何だよ	-11.0602
動くな	-11.0602
呼	-11.0606
走る	-11.0608
お返し	-11.0608
かわい	-11.0611
できん	-11.0611
ことはできない	-11.0611
係	-11.0611
踊り	-11.0612
昔は	-11.0613
巧	-11.0615
作れ	-11.0615
嫌がらせ	-11.0615
オマエ	-11.0615
近藤さん	-11.0615
有栖	-11.0615
操縦	-11.0615
泥棒	-11.0616
処刑	-11.0616
乱暴	-11.0617
想定	-11.0617
宣言	-11.0617
付き合う	-11.0617
ヨー	-11.0618
限定	-11.0618
意図	-11.0619
自己	-11.062
行かれ	-11.0621
教官	-11.0621
封じ	-11.0622
きている	-11.0623
デース	-11.0624
組の	-11.0624
ねぇな	-11.0626
あの方	-11.0626
支払	-11.0626
出て来	-11.0626
▁既に	-11.0627
急ぐ	-11.0628
立てる	-11.0629
ばら	-11.0631
存じ	-11.0637
通じ	-11.064
んじゃなくて	-11.0643
あたしたち	-11.0645
思ってた	-11.0648
情報は	-11.0649
▁兄上	-11.065
そそ	-11.065
▁なによ	-11.0655
▁きゅい	-11.0655
返事を	-11.0655
どれほど	-11.0657
らずに	-11.0657
れん	-11.0666
最中	-11.0668
▁ふざけんな	-11.0672
また明日	-11.0672
静か	-11.0676
どうしますか	-11.0677
騒が	-11.068
クレア	-11.0682
以外は	-11.0684
どちらに	-11.0685
出せる	-11.0689
▁そー	-11.0689
アレク	-11.0689
ようね	-11.0692
十一	-11.0692
兵隊	-11.0692
って奴	-11.0698
止まれ	-11.0698
殴り	-11.0702
してるんですか	-11.0702
▁今日も	-11.0703
合わ	-11.0703
b	-11.0704
▁もうすぐ	-11.0704
と思うわ	-11.0704
恭	-11.0704
鋭	-11.0705
直し	-11.0705
蓋	-11.0705
棚	-11.0705
冴	-11.0705
柊	-11.0705
鍛冶	-11.0705
拘束	-11.0705
提供	-11.0705
企業	-11.0706
考えると	-11.0706
お目にかか	-11.0707
青葉	-11.0709
どうしたら	-11.0709
同志	-11.071
ヒル	-11.0711
200	-11.0712
がございます	-11.0712
酔い	-11.0714
死んでも	-11.0715
憧れ	-11.0715
後輩	-11.0715
原さん	-11.0716
リース	-11.0717
素直	-11.0718
▁ええっと	-11.0721
前線	-11.0723
申し上げます	-11.0726
怪し	-11.0733
だからこそ	-11.0736
この家	-11.0738
だそうです	-11.0739
ちゃーん	-11.0749
起きる	-11.0753
サキ	-11.0753
その時に	-11.0754
男女	-11.0754
▁そうだけど	-11.0755
ことがない	-11.0756
ということです	-11.0756
自身の	-11.0758
▁畜生	-11.0759
応え	-11.0759
確かめ	-11.076
だん	-11.076
退け	-11.0761
頼むよ	-11.0762
イッ	-11.0762
を出し	-11.0763
我々に	-11.0765
十三	-11.0765
ニュー	-11.0767
何言ってんだ	-11.0767
よくわからない	-11.0767
ですもの	-11.0768
姉上	-11.0769
を相手に	-11.0773
すのは	-11.0776
腕を	-11.0778
ギン	-11.0779
なァ	-11.078
あて	-11.0783
ばん	-11.0787
話せ	-11.0791
の話だ	-11.0794
パリ	-11.0796
鐘	-11.0796
ギリギリ	-11.0796
収穫	-11.0796
整備	-11.0797
沖田さん	-11.0797
しなさいよ	-11.0797
こいつが	-11.0798
アリシア	-11.0798
井戸	-11.08
▁ほほう	-11.08
来るぞ	-11.08
神官長	-11.08
らば	-11.0801
貴公	-11.0802
番号	-11.0802
隣に	-11.0805
いいのかな	-11.0808
なしに	-11.0808
斯う	-11.081
▁お前に	-11.081
見られて	-11.0811
五分	-11.0812
されても	-11.0813
後退	-11.0814
抱いて	-11.0814
坊ちゃん	-11.0815
地味	-11.0817
が足りない	-11.082
バック	-11.0824
若旦那	-11.0825
ちゃいけない	-11.0827
タリ	-11.0827
合わない	-11.0829
まんま	-11.0829
味が	-11.083
争い	-11.083
用意して	-11.0832
よそ	-11.0833
▁いいのか	-11.0836
いたのは	-11.0838
使い方	-11.0838
するなら	-11.0847
お礼を	-11.0848
ごう	-11.0851
シテ	-11.0851
俺たちが	-11.0852
おいてくれ	-11.0853
盛り	-11.0855
が好きなの	-11.0858
読め	-11.086
どうするか	-11.0861
待てよ	-11.0863
わけじゃ	-11.0864
こんなもん	-11.0865
杉	-11.0867
名前で	-11.0867
愛する	-11.0868
どうなるの	-11.0869
助けに	-11.0869
本日	-11.087
陛下の	-11.0873
香り	-11.0874
りまして	-11.0875
~♪	-11.088
の腕	-11.0883
瑞	-11.0888
峰	-11.0888
嘉	-11.0888
蟻	-11.0888
コンビニ	-11.0888
フィロリアル	-11.0888
グループ	-11.0888
嵐	-11.0888
気づいた	-11.0888
尊敬	-11.0888
資格	-11.0888
健康	-11.0889
仕留め	-11.0889
初めまして	-11.089
体育	-11.0892
ナイト	-11.0892
仕え	-11.0893
かあ	-11.0893
を与える	-11.0894
突入	-11.0894
だけじゃない	-11.0895
戦で	-11.0897
もしくは	-11.0897
ルーム	-11.0897
MP	-11.0898
やつだ	-11.0898
要らない	-11.0899
500	-11.0899
教えた	-11.09
うっかり	-11.0901
有難い	-11.0902
上等	-11.0902
お肉	-11.0906
換	-11.0908
儲け	-11.0909
何してるの	-11.0909
お供	-11.091
人材	-11.0912
どうかしたの	-11.0912
くれないかな	-11.0915
いるようです	-11.0918
きたら	-11.0923
できるだけ	-11.0925
レティ	-11.0925
誘って	-11.0928
そんな馬鹿な	-11.0928
犯罪者	-11.0933
一方	-11.0935
伏せ	-11.0936
先ず	-11.0938
ぐら	-11.0939
オブ	-11.0942
の人達	-11.0942
後から	-11.0943
サンド	-11.0944
殴	-11.0947
のせいだ	-11.0947
の裏	-11.0948
そんな風に	-11.0955
行くわよ	-11.0955
しまえ	-11.0956
揺	-11.0956
ぉっ	-11.0958
いいんです	-11.0958
誉	-11.0971
こんな所で	-11.0971
かもしれませんが	-11.0973
やったら	-11.0976
寝た	-11.0979
葬	-11.0979
妙に	-11.0979
献	-11.098
燕	-11.098
隔	-11.098
成績	-11.0981
アイドル	-11.0982
説教	-11.0983
成果	-11.0983
エド	-11.0984
可愛らしい	-11.0986
総理	-11.0987
リサ	-11.0988
弱点	-11.0989
彼らは	-11.099
ォォォ	-11.099
あらゆる	-11.0993
国境	-11.0995
ストラ	-11.0996
調べる	-11.0999
主に	-11.1
の流れ	-11.1
押し付け	-11.1001
リズ	-11.1001
対戦	-11.1007
ぼくは	-11.1007
取れる	-11.101
から出て	-11.1011
んじゃあ	-11.1012
が作った	-11.1018
ぷっ	-11.1026
拙	-11.1027
こそが	-11.1029
ちょっとだけ	-11.1033
べし	-11.1038
誰ですか	-11.1039
喋	-11.104
ご一緒	-11.1042
ですけれど	-11.1043
日向	-11.1045
真白	-11.1046
協	-11.1047
杯	-11.1048
にゃー	-11.1049
ちゃうよ	-11.1051
わたくしも	-11.1052
しますから	-11.1055
よぅ	-11.1055
頂いた	-11.106
おしまい	-11.1062
職人	-11.1063
アリー	-11.1064
同意	-11.1064
向かい	-11.1065
減って	-11.1065
エルネア君	-11.1065
そのとき	-11.1066
会える	-11.1067
鑑	-11.1072
ニック	-11.1074
貯	-11.1074
ストーカー	-11.1074
ジュース	-11.1074
庄	-11.1074
幼馴染	-11.1074
脇	-11.1074
右衛門	-11.1074
役に立つ	-11.1075
▁おやおや	-11.1075
麻衣	-11.1075
キョウ	-11.1076
確信	-11.1076
ちっと	-11.1076
ゲルオ	-11.1077
亭主	-11.1077
わらわ	-11.1077
配置	-11.1081
▁ていうか	-11.1087
誰と	-11.1088
よければ	-11.1089
タクト	-11.1089
モード	-11.109
解らない	-11.1091
▁マジか	-11.1092
おろ	-11.1093
ステラ	-11.1094
と云	-11.1097
エリカ	-11.1097
▁ちぃ	-11.1099
打つ	-11.1099
グロ	-11.1099
化物	-11.1099
ふふふ	-11.1103
ハラ	-11.1104
安定	-11.1108
この頃	-11.111
上手い	-11.1114
こちらが	-11.1114
ノート	-11.1116
締	-11.112
あの子は	-11.1123
井上	-11.1124
無駄だ	-11.1129
▁ハハハ	-11.1133
えええええ	-11.1133
行かないと	-11.1134
赤ちゃん	-11.1135
問い	-11.1135
並み	-11.1137
はないのか	-11.1139
ごはん	-11.1139
ことなんて	-11.1139
見せてくれ	-11.1142
幼女	-11.1142
直す	-11.1145
あんなこと	-11.1146
あたい	-11.1147
何のこと	-11.115
どんなこと	-11.115
ちま	-11.1151
キースさん	-11.1152
いかがですか	-11.1152
増えた	-11.1155
居るの	-11.1155
さようなら	-11.116
声をかけ	-11.116
いつも通り	-11.1161
を見ると	-11.1165
亭	-11.1165
看	-11.1165
相違	-11.1166
倒せる	-11.1166
村に	-11.1167
坐	-11.1168
砂糖	-11.1168
疾	-11.1168
せいぜい	-11.1168
こー	-11.1169
パターン	-11.1169
運営	-11.1169
柚華	-11.1169
複数	-11.1169
対抗	-11.1169
要するに	-11.117
煙草	-11.117
講義	-11.117
発想	-11.1171
修理	-11.1171
同様	-11.1172
藤堂	-11.1173
徳川	-11.1175
を変え	-11.1177
怖かった	-11.1178
以上は	-11.1178
君には	-11.1181
撃って	-11.1183
通る	-11.1184
わわわ	-11.1185
いたし	-11.1185
▁なにそれ	-11.1186
あまりにも	-11.1187
あげよう	-11.1188
がんば	-11.1189
道理	-11.119
そうする	-11.119
▁ここの	-11.119
払	-11.1191
こちらから	-11.1192
食事を	-11.1194
頑張り	-11.1194
の報告	-11.1196
げん	-11.1197
んだもの	-11.12
前回	-11.1204
含	-11.1205
40	-11.1206
どうすんだ	-11.1208
良かったら	-11.121
てゐる	-11.1211
ないのです	-11.1212
兵力	-11.1215
違った	-11.1216
らせた	-11.1218
一歩	-11.1219
ォォォォ	-11.1219
そいつら	-11.122
はありませんか	-11.1224
食わ	-11.1225
彼女に	-11.1225
らしいぞ	-11.1236
短い	-11.1236
くなります	-11.1238
カット	-11.1239
まことに	-11.124
ございました	-11.124
剣士	-11.124
請	-11.1241
うつ	-11.1244
戻す	-11.1246
いやいや	-11.1247
朱莉さん	-11.1247
であること	-11.125
この男	-11.1253
無くて	-11.1254
見ていた	-11.1257
見せた	-11.1257
揉	-11.1258
小隊	-11.1259
設	-11.1259
拓	-11.1262
膝	-11.1263
堀	-11.1263
ウサギ	-11.1263
逮捕	-11.1263
佐々木	-11.1263
炭	-11.1263
所詮	-11.1264
ヅ	-11.1264
大抵	-11.1265
はどうですか	-11.1265
推理	-11.1265
記念	-11.1266
飛行機	-11.1266
ひい	-11.1267
しないでください	-11.127
どうしようもない	-11.1272
こないだ	-11.1272
出てきて	-11.1273
まわり	-11.1273
化け	-11.1274
したんですか	-11.1274
魔法陣	-11.1275
魔剣	-11.1275
もともと	-11.1277
どう見ても	-11.1277
かしらね	-11.1279
あはは	-11.128
ベルト	-11.1281
じょう	-11.1282
ミヤ	-11.1282
はどこだ	-11.1282
フェルディナンド様	-11.1284
しないよ	-11.1285
タク	-11.1286
礼名	-11.1286
最強の	-11.1287
事務所	-11.1287
ホラ	-11.1288
いただいた	-11.1289
行こうぜ	-11.1294
模様	-11.1295
と言っていた	-11.1296
気付いた	-11.13
今のうちに	-11.1302
三百	-11.1302
じゅ	-11.1302
回し	-11.1307
コード	-11.1307
中学	-11.1309
街に	-11.131
どうなんだ	-11.1311
潰れ	-11.1312
潰し	-11.1314
合せ	-11.1315
きてる	-11.1316
マーク	-11.1317
するのも	-11.132
似合	-11.132
何でしょう	-11.1321
眠って	-11.1323
わかるか	-11.1329
聞いていた	-11.1331
いらん	-11.1335
あああっ	-11.1337
いないのか	-11.1339
言う事	-11.1344
我らの	-11.1344
そうすれば	-11.1346
ええええ	-11.1349
ウェイ	-11.1354
自身が	-11.1354
まつ	-11.1354
よォ	-11.1356
もんじゃない	-11.1357
生れ	-11.1357
稼ぎ	-11.1359
芳	-11.1359
覆	-11.136
傘	-11.136
笹	-11.136
妄想	-11.136
に会う	-11.136
すげー	-11.136
ザン	-11.1361
頼まれた	-11.1361
堂々と	-11.1361
銀河	-11.1362
――――――	-11.1362
母様	-11.1362
ホール	-11.1362
相棒	-11.1362
渡り	-11.1365
琴音	-11.1365
事情を	-11.1366
特定	-11.1366
ちょっと待ってください	-11.1367
開き	-11.1369
いいえ	-11.1372
念のため	-11.1374
ヤマ	-11.1374
上空	-11.1375
民間	-11.1376
しませんよ	-11.1379
憎い	-11.138
どうしたんだい	-11.1381
されていない	-11.1381
だつた	-11.1382
おいら	-11.1382
るんじゃ	-11.1382
コート	-11.1383
けれどね	-11.1383
の護衛	-11.1384
放せ	-11.1384
不死	-11.1385
家臣	-11.1386
やられる	-11.1387
ペル	-11.1388
を着て	-11.1388
がないから	-11.1389
いきましょう	-11.1389
アデル	-11.1391
ござい	-11.1392
読む	-11.1398
もんだな	-11.1401
倒し	-11.1404
しとけ	-11.1406
バード	-11.1407
坊や	-11.1408
▁お待たせ	-11.1411
邪魔だ	-11.1416
づく	-11.1419
ケチ	-11.1419
貰いたい	-11.1426
用がある	-11.1427
入ってる	-11.1432
こいつを	-11.1435
コース	-11.1438
魅	-11.1438
揚	-11.1438
シュー	-11.144
結構な	-11.1444
離れた	-11.1445
料理を	-11.1445
きてくれ	-11.1447
なのでしょう	-11.1449
になっちゃう	-11.145
▁ははあ	-11.1451
悟	-11.1456
暁	-11.1457
桂	-11.1457
純粋	-11.1457
帰還	-11.1457
いたんです	-11.1458
を狙う	-11.1458
▁何だって	-11.1458
しようとして	-11.1458
正確に	-11.1458
留め	-11.1459
当り	-11.1459
公園	-11.1462
店で	-11.1462
それなのに	-11.1464
ウィン	-11.1465
結び	-11.1467
ねぇだろ	-11.147
らなければ	-11.147
タダ	-11.1471
ィィィ	-11.1472
れたら	-11.1473
貴方に	-11.1473
待たせた	-11.1473
たまるか	-11.1474
してるから	-11.1476
島に	-11.148
▁うんうん	-11.148
地位	-11.1485
打って	-11.1487
こういうこと	-11.1487
始まった	-11.1493
倒れ	-11.1495
行きますよ	-11.1498
いられない	-11.1498
アディ	-11.15
がんばって	-11.1506
いい子	-11.1508
ァー	-11.151
お家	-11.1511
は既に	-11.1512
違え	-11.1512
クー	-11.1513
小さく	-11.1514
申します	-11.1518
と違う	-11.1518
そのために	-11.152
必	-11.1521
ぁぁぁぁぁ	-11.1524
掛かる	-11.1525
もあるし	-11.1526
手伝ってくれ	-11.1527
引く	-11.1528
ござる	-11.1529
こちらも	-11.1529
あああああああああああああ	-11.1529
アンタは	-11.1531
任せる	-11.1532
があっても	-11.1533
やってた	-11.1535
説明する	-11.1539
二つの	-11.1541
の知り合い	-11.1541
麦	-11.1549
五日	-11.1551
あったら	-11.1552
洞窟	-11.1554
篠	-11.1554
を出せ	-11.1554
或	-11.1554
緩	-11.1555
祥	-11.1555
こっそり	-11.1555
嘆	-11.1555
恰好	-11.1555
スープ	-11.1555
ございませぬ	-11.1555
近寄	-11.1555
恭介	-11.1555
連続	-11.1556
美味しそう	-11.1556
役人	-11.1556
火事	-11.1556
我輩	-11.1556
▁お待たせしました	-11.1557
刀を	-11.1558
殺害	-11.1558
万が一	-11.156
を選ぶ	-11.156
貰おう	-11.156
抜けて	-11.1561
席に	-11.1561
サボ	-11.1562
バトル	-11.1563
めっちゃ	-11.1564
どうしてそんな	-11.1564
べきか	-11.1565
基本的に	-11.1565
運ぶ	-11.1566
たまま	-11.1567
でないと	-11.1568
どうかしたのか	-11.157
した方がいい	-11.1571
の所に	-11.1572
違って	-11.1573
▁フン	-11.1579
しないから	-11.158
モモ	-11.158
言ふ	-11.1582
下り	-11.1584
しっかりと	-11.1584
今なら	-11.1586
眠り	-11.1588
その通りです	-11.1588
何が言いたい	-11.159
だけどな	-11.1591
▁ローゼマイン	-11.1594
を探す	-11.1595
いったら	-11.1595
似てる	-11.1598
ブラン	-11.16
してくれない	-11.1603
ねえだろ	-11.1603
ぅっ	-11.1604
綺麗に	-11.1605
調べた	-11.1607
お疲れ様です	-11.161
おっしゃって	-11.1611
仕様	-11.1613
▁ひゃっ	-11.1613
残った	-11.1615
知ってます	-11.162
つもりです	-11.162
アトラ	-11.1621
みせ	-11.1621
おれたち	-11.1622
になりません	-11.1624
まとめて	-11.1629
フォル	-11.1631
のようだ	-11.1632
叔父	-11.1636
バリ	-11.1637
妹さん	-11.1639
下さいね	-11.164
さんのこと	-11.1641
しているから	-11.1642
行ったら	-11.1646
その通り	-11.1647
どんな感じ	-11.1648
云わ	-11.165
乗せて	-11.1652
許され	-11.1652
督	-11.1653
エーレンフェスト	-11.1654
にはならない	-11.1654
明後日	-11.1654
ハザマ	-11.1654
開く	-11.1654
招待	-11.1654
停止	-11.1655
制限	-11.1655
伯父	-11.1657
早めに	-11.1658
決着	-11.1659
アキラ	-11.1661
ないのは	-11.1662
ドウ	-11.1663
連合の	-11.1666
実戦	-11.1666
そういう意味	-11.1666
最近は	-11.1667
宇宙船	-11.1667
借金	-11.1669
止まって	-11.1669
づき	-11.167
いたしましょう	-11.1671
見られる	-11.1672
げぇ	-11.1676
戦術	-11.1678
不良	-11.168
辺境	-11.168
髪を	-11.1683
▁本当か	-11.1687
全身	-11.1688
好きです	-11.1688
方法を	-11.1689
ニヤ	-11.1689
お湯	-11.1694
落とした	-11.1695
弁当	-11.1698
聞こえた	-11.1698
ドール	-11.1698
どこへ行く	-11.1698
凄いな	-11.17
オッ	-11.1701
必要ない	-11.1705
ぇぇぇぇ	-11.1706
って言っても	-11.1706
いないから	-11.1706
ユン	-11.1708
はずがない	-11.1709
関係者	-11.1709
カイル	-11.1711
って呼んで	-11.1712
今さら	-11.1713
スキー	-11.1717
いるのよ	-11.1721
皆で	-11.1722
尚	-11.1724
飽き	-11.1727
神崎	-11.1727
じゃ無い	-11.1728
半年	-11.1728
はありますが	-11.1736
チラ	-11.1737
ねえぞ	-11.1738
兼ね	-11.1741
故に	-11.1747
胸が	-11.1748
ものじゃ	-11.175
でお願いします	-11.1752
柔	-11.1753
v	-11.1753
洗濯	-11.1754
孝	-11.1754
励	-11.1754
兆	-11.1754
殲滅	-11.1754
畏まりました	-11.1754
株	-11.1754
雀	-11.1754
(・・)	-11.1754
いるので	-11.1754
裁判	-11.1755
馴染	-11.1756
損害	-11.1756
発展	-11.1756
すんの	-11.1756
有り得	-11.1756
確定	-11.1756
良ければ	-11.1757
眺め	-11.1758
お前には	-11.1758
首都	-11.1758
サク	-11.1758
怖くない	-11.1758
メグ	-11.1759
ぁああああ	-11.176
▁もちろんです	-11.1761
帰ります	-11.1763
揃い	-11.1764
しっかりして	-11.1766
商会	-11.1767
ありませんでした	-11.1769
案内して	-11.1769
▁うぉ	-11.1769
ビビ	-11.1769
同情	-11.1769
が見える	-11.1771
魅力	-11.1772
至急	-11.1772
殺されて	-11.1772
素人	-11.1774
始まり	-11.1775
青年	-11.1777
ストップ	-11.1778
意地悪	-11.1782
聞いてくれ	-11.1786
きょ	-11.1787
になつた	-11.1789
はありますか	-11.1794
そう簡単に	-11.1798
▁あーあ	-11.1799
と云ふ	-11.1799
無駄な	-11.18
わけでもない	-11.1801
ぃぃ	-11.1802
夜中に	-11.1804
顔で	-11.1805
▁おいっ	-11.1806
男の人	-11.1807
と思いますけど	-11.1807
正面から	-11.1808
紛れ	-11.1811
気づか	-11.1812
御飯	-11.1813
いらっしゃ	-11.1813
感謝する	-11.1813
お花	-11.1813
単に	-11.1814
▁えゝ	-11.1814
いいだろ	-11.1815
セレ	-11.182
どおり	-11.1821
士官	-11.1827
暗殺	-11.1827
言おう	-11.1827
ナギ	-11.1829
この子は	-11.1837
時代の	-11.1837
アレは	-11.1839
金持ち	-11.1839
はどうするの	-11.1841
をつける	-11.1842
国防	-11.1843
るものか	-11.1845
驚	-11.1846
封	-11.1847
妾は	-11.1851
桐	-11.1851
ニコ	-11.1853
洗い	-11.1853
生まれて	-11.1854
レイド	-11.1854
弄	-11.1854
総司	-11.1854
併	-11.1855
笠	-11.1855
新選組	-11.1855
猪	-11.1855
囮	-11.1855
ネズミ	-11.1855
メリッサ	-11.1855
行方不明	-11.1855
すっごい	-11.1855
砦	-11.1855
排除	-11.1855
ミランダ	-11.1855
効率	-11.1855
を助けて	-11.1856
レティシア	-11.1856
するのだ	-11.1856
順調	-11.1856
入り口	-11.1859
お父さんが	-11.1861
美緒	-11.1862
けい	-11.1862
服を着	-11.1863
飛ばして	-11.1863
兄妹	-11.1863
AI	-11.1863
派手に	-11.1867
馴れ	-11.187
はずなのに	-11.1871
の中でも	-11.1872
置いた	-11.1872
くたば	-11.1875
止めた	-11.1875
迷子	-11.1875
何だって	-11.1875
で見た	-11.1876
シエ	-11.1877
ばば	-11.1877
入ります	-11.1878
しっかりしろ	-11.1882
ハルト	-11.1882
カズ	-11.1884
寂し	-11.1885
ライラ	-11.1888
持ってない	-11.1894
何やって	-11.1897
ではあるまい	-11.1904
............!!	-11.1906
▁ええい	-11.1908
俺から	-11.191
いらした	-11.1914
大丈夫なんですか	-11.1918
ソフィ	-11.1918
身内	-11.1918
プラン	-11.192
異能	-11.1923
になるから	-11.1923
ゴル	-11.1923
我慢して	-11.1924
テオ	-11.1927
武田	-11.1934
してゐる	-11.1937
完	-11.1938
たぁ	-11.1942
▁ほぉ	-11.1942
だったっけ	-11.1944
副長	-11.1947
やっつけ	-11.195
入ろう	-11.195
離れる	-11.1956
幅	-11.1956
×	-11.1957
駕籠	-11.1957
穿	-11.1957
蒸	-11.1957
烏	-11.1957
覇	-11.1957
棟	-11.1957
近づいて	-11.1957
大丈夫だから	-11.1957
いちばん	-11.1957
設計	-11.1957
助ける	-11.1958
ゲイ	-11.1959
雑魚	-11.1959
食材	-11.1959
夕飯	-11.1959
伊藤	-11.196
許される	-11.1961
北条	-11.1962
自分たち	-11.1963
遅れて	-11.1964
ミシェル	-11.1965
ダウン	-11.1967
フォン	-11.1968
気合	-11.1968
と言うのか	-11.197
なかったんですか	-11.1971
をとって	-11.1971
パラ	-11.1973
そうなんだけど	-11.1974
軍隊	-11.1975
ヴォル	-11.1976
▁ふぇぇ	-11.1977
声は	-11.1979
役割	-11.1981
...!!	-11.1985
って思う	-11.1986
かまわない	-11.1987
信長	-11.1987
およそ	-11.1988
アマネ	-11.1988
ケツ	-11.1989
びっくりした	-11.1989
チビ	-11.1991
言わなかった	-11.1991
たかが	-11.1992
エラ	-11.1992
なにしろ	-11.1994
あんたたち	-11.1994
知ってるか	-11.1997
それがし	-11.2001
身体を	-11.2002
er	-11.2006
▁そうかい	-11.2007
闇の	-11.2007
なりたい	-11.201
抱え	-11.201
なんだろうな	-11.2011
お茶を	-11.2011
さくら	-11.2013
フィン	-11.2013
すみませんでした	-11.2013
道場	-11.2015
店に	-11.2015
姫君	-11.2016
こま	-11.2018
頂きます	-11.2018
非常	-11.2018
あの時の	-11.2019
悪かったな	-11.2023
18	-11.2026
トウ	-11.2027
この国の	-11.2032
に感謝	-11.2036
剣術	-11.2037
触る	-11.2049
の底	-11.205
定め	-11.2053
捕まえて	-11.2053
だったし	-11.2053
もいない	-11.2056
浄	-11.2056
則	-11.2057
何かあったの	-11.2057
攫	-11.206
卓	-11.206
▁グルルゥ	-11.206
▁うるせぇ	-11.206
懐かしい	-11.206
貴重な	-11.206
負担	-11.206
体験	-11.2061
近づく	-11.2061
大阪	-11.2062
委員長	-11.2063
行かせ	-11.2065
死んじゃ	-11.2066
大公	-11.2066
解り	-11.2067
近頃	-11.2068
ティング	-11.2069
遂	-11.2069
悩	-11.2069
悔	-11.2069
散々	-11.207
フォード	-11.2071
をお持ち	-11.2078
入学	-11.2082
ァァァァ	-11.2084
似合ってる	-11.2088
んん	-11.209
待て待て	-11.209
前進	-11.2091
偽物	-11.2094
山崎	-11.2094
ありませんか	-11.2095
16	-11.2097
並んで	-11.2102
絞	-11.2104
か分からない	-11.2107
ないもん	-11.211
苦手な	-11.2111
があるんだけど	-11.2111
ここら	-11.2113
コア	-11.2114
しておけ	-11.2116
良いですか	-11.2119
クン	-11.2119
貸	-11.2123
気に入って	-11.2128
ワル	-11.2128
飛んだ	-11.2134
十九	-11.2142
行くから	-11.2143
ぁあああ	-11.2144
って言ったら	-11.2146
各国	-11.2146
べえ	-11.2147
どうするつもりだ	-11.2149
に会いに	-11.215
しといて	-11.2153
あそこまで	-11.2155
アンタが	-11.2159
ララ	-11.216
アタシは	-11.216
章	-11.2163
だからさ	-11.2163
お楽しみ	-11.2164
庵	-11.2164
壇	-11.2164
鉢	-11.2164
胃	-11.2164
閃	-11.2164
誤魔化	-11.2164
丶	-11.2164
侮辱	-11.2164
親戚	-11.2164
敢	-11.2164
はどうなの	-11.2164
連邦	-11.2164
おとなしく	-11.2164
衝撃	-11.2165
どう考えても	-11.2165
起動	-11.217
謝って	-11.2171
あるんだよ	-11.2171
ようだね	-11.2172
オーバー	-11.2172
そうすると	-11.2173
伺い	-11.2177
になっていた	-11.2178
書かれて	-11.2178
認められ	-11.218
死んじゃう	-11.2181
勘弁	-11.2187
なんというか	-11.2187
もあろう	-11.2188
悔しい	-11.2193
話し合い	-11.2193
▁ふぅん	-11.2199
ヴァイ	-11.2202
何という	-11.2206
その手	-11.2208
忘れる	-11.2208
やりました	-11.2211
してたんだ	-11.2217
の目的は	-11.2217
殿下の	-11.2218
偉	-11.222
任せろ	-11.2222
動かせ	-11.2223
存じて	-11.2225
京都	-11.2225
たいことがある	-11.2227
なんですから	-11.2227
失礼ですが	-11.2228
着る	-11.2228
人類の	-11.2228
の方も	-11.2229
だけでなく	-11.2233
様子を見	-11.2237
を開けて	-11.2243
手に入れた	-11.2244
イナ	-11.2245
起こして	-11.2248
云ふ	-11.225
週間	-11.2252
できるのか	-11.2254
出かける	-11.2255
怒られ	-11.2255
助けてくれた	-11.226
ハム	-11.2263
うま	-11.2264
辻	-11.2269
俊	-11.2269
賜	-11.2269
友だち	-11.2269
イギリス	-11.2269
印象	-11.2269
オッケー	-11.227
りゅう	-11.227
呼吸	-11.227
財産	-11.227
忠告	-11.227
頼まれて	-11.227
給料	-11.2271
こうも	-11.2271
でぇ	-11.2271
を見つけた	-11.2271
呪文	-11.2272
ったもの	-11.2273
如月	-11.2274
仕舞	-11.2274
仰しゃ	-11.2275
金属	-11.2276
独立	-11.2276
渡し	-11.2277
放送	-11.2278
ように見える	-11.228
だと思うけど	-11.228
ギー	-11.2283
ような気が	-11.2283
捧げ	-11.2285
とか言う	-11.2287
尽き	-11.2288
ムリ	-11.2289
目の前に	-11.2289
ワイン	-11.2291
やってみる	-11.2291
やけに	-11.2293
食べよう	-11.2293
何かあったのか	-11.2294
何者か	-11.2296
じゃないんですか	-11.2298
ないからね	-11.2299
▁左様ですか	-11.2301
カツ	-11.2302
レジ	-11.2302
侍女	-11.2305
さぬ	-11.2305
ゲル	-11.2306
俺にも	-11.2308
ひき	-11.2309
潰して	-11.2311
久しぶりだな	-11.2313
ハク	-11.2314
できること	-11.2315
存在する	-11.2316
ぶる	-11.2316
占い	-11.2317
するには	-11.2328
ソラ	-11.2329
マナ	-11.233
台所	-11.233
できました	-11.2333
の女神	-11.2334
お連れ	-11.2334
いたのだ	-11.2336
を突き	-11.2336
いてくれる	-11.2336
に任せる	-11.2337
見ない	-11.2338
見事な	-11.2339
彼等は	-11.2348
もんだから	-11.2351
彼を	-11.2351
倒れて	-11.2352
どうし	-11.2352
ゼン	-11.2353
考えていた	-11.2354
三人で	-11.2361
お別れ	-11.2362
飲み物	-11.2368
ちー	-11.2369
しなければならない	-11.2373
還	-11.2374
いいもの	-11.2374
壺	-11.2376
妨害	-11.2376
テロリスト	-11.2376
曹操	-11.2376
労働	-11.2376
強力な	-11.2376
あり得ない	-11.2376
自分も	-11.2376
トラブル	-11.2377
重力	-11.2379
帽子	-11.2379
廊下	-11.2379
視線	-11.2379
地域	-11.2381
テラ	-11.2381
御存じ	-11.2383
好意	-11.2384
大概	-11.2385
突っ込んで	-11.2385
割れ	-11.2387
みず	-11.2387
こうなったら	-11.2388
無能	-11.2392
を整え	-11.2393
よろしく頼む	-11.2393
休め	-11.2394
帝国の	-11.2394
クラブ	-11.2395
日記	-11.2395
ナス	-11.2398
掘り	-11.2401
アアアアア	-11.2407
美ちゃん	-11.2407
見ました	-11.2408
土産	-11.2409
五月	-11.2409
とは思わない	-11.2414
でしたよ	-11.2418
あったのか	-11.2418
止めてくれ	-11.2418
さず	-11.2421
ロリ	-11.2421
ワール	-11.2422
言葉に	-11.2424
しかありません	-11.2426
状況で	-11.243
わしも	-11.2432
みたいだから	-11.2433
かっこ	-11.2433
えーっと	-11.2433
告げ	-11.2439
ぱい	-11.244
ますからね	-11.2446
でもありません	-11.2447
ないよな	-11.2447
これじゃ	-11.2451
ったく	-11.2452
と呼んで	-11.2454
はいらない	-11.2454
いなさい	-11.2456
このままじゃ	-11.2457
帰ってきて	-11.2457
るようになった	-11.2458
ひぃ	-11.2461
十七	-11.2463
お願いして	-11.2465
太陽ちゃん	-11.2469
言わず	-11.2471
参加する	-11.2472
になったんだ	-11.2473
るんじゃないか	-11.2474
してみて	-11.2477
掛かって	-11.2478
聞こえない	-11.248
競	-11.2482
録	-11.2482
熟	-11.2483
環	-11.2483
窮	-11.2483
王太子	-11.2483
戴	-11.2483
迄	-11.2483
畳	-11.2483
鋼	-11.2483
圏	-11.2483
薫	-11.2483
愁	-11.2483
披露	-11.2483
沸	-11.2483
朗	-11.2483
辰	-11.2483
汁	-11.2483
蜜	-11.2483
冥	-11.2483
狸	-11.2483
序	-11.2483
しないように	-11.2483
乾杯	-11.2483
落ち着き	-11.2484
街道	-11.2484
幕府	-11.2484
真ん中	-11.2484
現象	-11.2484
改造	-11.2485
ペース	-11.2485
英語	-11.2485
狙撃	-11.2486
工夫	-11.2486
前方	-11.2487
植	-11.2487
景色	-11.2487
ミリー	-11.2491
捕ま	-11.2491
たっぷり	-11.2494
日本に	-11.2496
ヴァイト	-11.2497
~!!	-11.2499
出世	-11.2499
拝見	-11.2499
ハッハッハ	-11.2501
親子	-11.2502
早かった	-11.2503
叱	-11.2504
に乗る	-11.2504
留守番	-11.2506
見学	-11.2507
シィ	-11.2509
空母	-11.251
ビール	-11.2513
頼んだぞ	-11.2514
寝てた	-11.2515
ソロ	-11.2516
してある	-11.2517
誓い	-11.2518
どっちも	-11.2518
ぶって	-11.2519
地方	-11.2521
を守って	-11.2521
ですけどね	-11.2522
大いに	-11.2525
人工	-11.2539
▁うぐ	-11.2542
当家	-11.2544
呆れ	-11.2545
ミィ	-11.2547
ことを言って	-11.2547
周りの	-11.2548
お願いする	-11.2548
左右	-11.2551
会いに	-11.2552
他国	-11.2553
濡れ	-11.2554
▁ふんっ	-11.2558
機動	-11.2558
どうしろ	-11.2559
おおおおおおおおおお	-11.2564
を感じる	-11.2565
ちょっとした	-11.2565
嬉しいです	-11.2566
しとく	-11.2568
かつた	-11.257
に行きたい	-11.257
わたしを	-11.257
ぁぁぁぁぁぁ	-11.2571
出会った	-11.2576
傷つけ	-11.258
斉	-11.258
来いよ	-11.2583
ロード	-11.2584
一万	-11.2584
ふざけて	-11.2584
引け	-11.2584
シノ	-11.2585
いいかしら	-11.2585
簡	-11.2592
鼓	-11.2592
克	-11.2592
違和感	-11.2592
ガエリオン	-11.2592
渋	-11.2592
砂漠	-11.2592
購入	-11.2592
アニメ	-11.2592
洞窟衆	-11.2593
玄関	-11.2593
痛くない	-11.2593
ノロット	-11.2594
布団	-11.2595
権限	-11.2595
通常	-11.2598
▁つーか	-11.2599
合格	-11.2599
さよなら	-11.26
先刻	-11.2601
たいんだ	-11.2604
いること	-11.2605
トコ	-11.2606
古代	-11.2606
午前	-11.2608
休む	-11.2608
これは一体	-11.261
気絶	-11.261
リデル	-11.261
美女	-11.2611
倒れた	-11.2612
何の用だ	-11.2614
死にたい	-11.2616
おなか	-11.2619
の影響	-11.2625
あの人が	-11.2625
が終わったら	-11.2629
と戦う	-11.2629
のままで	-11.263
覗	-11.263
ちまって	-11.2632
頂く	-11.2635
やられて	-11.2636
カミ	-11.2638
起きろ	-11.264
俺だけ	-11.2644
無事だった	-11.2646
動けない	-11.2646
難い	-11.2648
届き	-11.265
だけではない	-11.2651
溜	-11.2651
と言われても	-11.2651
そうだから	-11.2652
いたんですか	-11.2656
出入り	-11.2657
お持ち	-11.2658
慰め	-11.2659
問題ありません	-11.2663
残念です	-11.2669
ベア	-11.2672
願います	-11.2674
申せ	-11.2675
って言われても	-11.2682
分かったよ	-11.2691
胆	-11.2691
サイン	-11.2691
こりゃあ	-11.2693
離れろ	-11.2693
ちぃちゃん	-11.2698
丈	-11.2701
本当なの	-11.2702
輔	-11.2702
助かります	-11.2702
あきらめ	-11.2702
スピード	-11.2702
崇	-11.2702
検査	-11.2702
もらえませんか	-11.2704
バランス	-11.2704
はあるのか	-11.2705
その日	-11.2705
光景	-11.2705
マキナ	-11.2706
最早	-11.2706
ミニ	-11.2707
大隊	-11.2707
リュウ	-11.2708
野球	-11.2709
却下	-11.2709
関わって	-11.2711
性質	-11.2711
生憎	-11.2713
はならない	-11.2716
おかないと	-11.2718
出来るだけ	-11.2719
に会った	-11.2719
メス	-11.2721
お屋敷	-11.2722
キミは	-11.2723
大層	-11.2723
失礼しました	-11.2724
と言いたい	-11.2726
作ろう	-11.2726
アース	-11.2726
高度	-11.2727
ならねえ	-11.2728
のおかげ	-11.2729
返り	-11.273
当分	-11.2731
いるけど	-11.2732
よくやった	-11.2732
言うのは	-11.2732
ごっこ	-11.2733
冒険者ギルド	-11.2733
賢者	-11.2733
リアン	-11.2734
できたら	-11.2735
▁わかったわ	-11.2735
別にいい	-11.2737
なんだよね	-11.2739
自体が	-11.274
おりまして	-11.2742
ようなことを	-11.2742
大輝	-11.2742
するべき	-11.2743
やめてよ	-11.2747
椿ちゃん	-11.2752
を待つ	-11.2752
千年	-11.2753
切れる	-11.2754
ムさん	-11.2755
ううっ	-11.2759
人口	-11.2759
彼らの	-11.2763
何やら	-11.2764
ぶつけ	-11.2765
宿屋	-11.2767
犯人が	-11.2772
おまえら	-11.2772
中心	-11.2774
を上げて	-11.2776
そうだよね	-11.2778
言わせて	-11.2778
の一部	-11.2781
込んでいる	-11.2783
感じる	-11.2786
カレン	-11.2787
ヴォ	-11.2787
無事か	-11.2788
手柄	-11.2789
になっています	-11.2789
入れない	-11.279
うわっ	-11.2791
小田	-11.2792
だとしても	-11.2794
訴え	-11.2796
ちゃあ	-11.2798
もらいます	-11.2803
の件は	-11.2805
んだったら	-11.2808
催	-11.2812
燈	-11.2813
侯	-11.2813
彰	-11.2813
撒	-11.2813
粒	-11.2813
マズイ	-11.2813
レース	-11.2813
申請	-11.2813
おめでとうございます	-11.2814
柔らか	-11.2814
奇跡	-11.2814
騒動	-11.2815
座敷	-11.2815
有効	-11.2815
奉行	-11.2816
甘く	-11.2817
登場	-11.282
やってきた	-11.282
術式	-11.2821
当たった	-11.2821
生徒会長	-11.2822
話したい	-11.2823
現代	-11.2824
事前に	-11.2828
化した	-11.2829
くさい	-11.2832
光栄	-11.2834
背後	-11.2834
させてください	-11.2838
ゆき	-11.2839
呼び捨て	-11.284
地点	-11.284
ごらんなさい	-11.2845
▁げっ	-11.2846
政治家	-11.2847
ナイス	-11.2848
やらせ	-11.2848
ああああっ	-11.2851
イオン	-11.2855
いい加減にしろ	-11.2857
アンナ	-11.286
フン	-11.286
と同じように	-11.286
出そう	-11.2864
消す	-11.2864
クマ	-11.2865
ちまえ	-11.2867
▁なぜだ	-11.287
があるのです	-11.2875
イグ	-11.2877
暮らして	-11.2881
よしよし	-11.2882
お化け	-11.2885
済みません	-11.2886
くれたら	-11.2888
の中から	-11.2888
後宮	-11.2892
マジかよ	-11.2893
ぉぉ	-11.2894
ッキー	-11.2895
誇	-11.2898
逢い	-11.29
ことある	-11.2901
リョー	-11.291
権力	-11.2911
なかったけど	-11.2912
ノス	-11.2915
云え	-11.2915
どこにある	-11.2918
解った	-11.2918
ようとして	-11.2922
慎	-11.2923
きれない	-11.2924
飲ませ	-11.2924
星系	-11.2925
塵	-11.2925
笛	-11.2925
取りあえず	-11.2925
こんばんは	-11.2925
ジジイ	-11.2925
提督	-11.2925
奇襲	-11.2926
スタイル	-11.2927
整理	-11.2927
治癒	-11.2928
脱いで	-11.2929
お嫁さん	-11.2929
魔道具	-11.293
シャワー	-11.2931
ロルフ	-11.2932
指定	-11.2932
反撃	-11.2933
デイル	-11.2934
ソフィア	-11.2935
自動	-11.2936
ゲート	-11.2939
れました	-11.2939
ソード	-11.2944
選んで	-11.2944
来なさい	-11.2944
主砲	-11.2945
レディ	-11.2946
女の人	-11.295
デレ	-11.295
無線	-11.2951
は関係ない	-11.2952
何かあったら	-11.2952
十四	-11.2954
本音	-11.2956
みました	-11.2959
帰ら	-11.2959
出ている	-11.2962
住民	-11.2962
なんだこれ	-11.2963
ブヒ	-11.2968
お願いしたい	-11.2974
たかったの	-11.2976
割と	-11.2976
年上	-11.2977
許してくれ	-11.2979
ってのも	-11.2979
一晩	-11.298
貴女が	-11.2982
中へ	-11.2985
何人か	-11.2987
って言うんだ	-11.2989
面白く	-11.2995
わけないだろ	-11.2999
戦闘機	-11.2999
校長	-11.3002
欲しく	-11.3006
ウォー	-11.3008
ぃぃぃ	-11.3014
あのような	-11.3017
雪ちゃん	-11.3022
しているのは	-11.3024
最大の	-11.3027
描いて	-11.3033
ご用	-11.3035
でもあるのか	-11.3036
呂	-11.3036
普	-11.3037
茂	-11.3039
禍	-11.3039
慈悲	-11.3039
偉大な	-11.3039
特徴	-11.3039
予測	-11.304
エンジン	-11.304
死骸	-11.304
爆撃	-11.3041
いただけませんか	-11.3042
たらどうだ	-11.3042
尾張	-11.3043
の言うこと	-11.3043
内容は	-11.3043
負傷	-11.3043
合わせる	-11.3043
マネ	-11.3043
武蔵	-11.3044
と思ふ	-11.3046
信号	-11.3046
外交	-11.3046
可能性もある	-11.3048
治安	-11.305
落として	-11.305
無限	-11.3052
ぉぉぉぉ	-11.3055
代理	-11.3055
言ってみろ	-11.3056
の間で	-11.3057
も一緒	-11.3058
済ませ	-11.3061
髪の	-11.3062
▁なんですって	-11.3063
効く	-11.3064
待っていた	-11.3067
を見ている	-11.3067
揺れ	-11.3067
その言葉	-11.3081
教えてください	-11.3083
シリウス様	-11.3084
入りました	-11.3085
元に戻	-11.3085
読ま	-11.3088
抜ける	-11.3091
▁うぐっ	-11.3091
われら	-11.3092
下され	-11.3093
にしようか	-11.3094
しておきます	-11.3094
何言ってんの	-11.3094
動いた	-11.3099
ナツ	-11.3102
殴って	-11.3102
言えよ	-11.3104
前へ	-11.3105
そういうことか	-11.311
云つて	-11.311
声で	-11.311
気はない	-11.3112
ノア	-11.3112
回す	-11.3115
していく	-11.3116
ヒィ	-11.3117
ひろ	-11.3117
乗った	-11.3118
よいか	-11.3125
たりして	-11.3125
何処で	-11.3125
思われて	-11.3126
あぁぁぁ	-11.3127
聞いてた	-11.3128
キレイ	-11.3131
掛かり	-11.3132
あぶない	-11.3135
んとこ	-11.3135
と言うのは	-11.3139
くださった	-11.314
専	-11.3141
授	-11.3143
へ行った	-11.3147
丈夫	-11.3147
すりゃ	-11.3149
ううん	-11.315
衝	-11.3152
委	-11.3153
縫	-11.3154
符	-11.3154
奈津美	-11.3154
メリット	-11.3154
炉	-11.3154
詠唱	-11.3154
ぴょん	-11.3154
捜索	-11.3154
物騒な	-11.3154
クリーム	-11.3154
臆病	-11.3154
××	-11.3154
脅威	-11.3155
と思うんだが	-11.3155
企んで	-11.3155
獅子	-11.3155
経済	-11.3155
wwwww	-11.3155
奉公	-11.3156
も構わない	-11.3156
色々な	-11.3156
単なる	-11.3156
感想	-11.3156
眼鏡	-11.3157
魚雷	-11.3157
ショット	-11.3157
いただけますか	-11.3158
従者	-11.3158
現れ	-11.3158
ハッキリ	-11.3159
順番	-11.3159
ボウ	-11.3163
ニュース	-11.3164
首相	-11.3164
あのとき	-11.3165
であっても	-11.3166
してしまって	-11.3167
再生	-11.3168
いきません	-11.3168
たくなかった	-11.3168
お互いに	-11.317
外国	-11.3175
帰りたい	-11.3175
訊く	-11.3176
ティス	-11.3176
奥に	-11.3178
敵対	-11.3179
あぁぁ	-11.3184
何これ	-11.3184
覚えた	-11.3184
然う	-11.3185
来れば	-11.3187
▁そんなら	-11.3187
獲物	-11.3188
よく分からない	-11.3189
あーん	-11.3189
ある意味	-11.319
私達も	-11.3192
結婚して	-11.3192
あるわけ	-11.3194
考えたら	-11.3197
ボクが	-11.3198
日曜	-11.3198
勝者	-11.3202
っくり	-11.3206
セラ	-11.3208
ないじゃないか	-11.3208
アルス	-11.3217
事はない	-11.3221
そうな顔	-11.3228
命中	-11.3231
聞けば	-11.3231
言ってなかった	-11.3234
リタ	-11.3234
ぁあああああ	-11.3234
獲	-11.3236
死んだら	-11.3236
大声	-11.3237
怯え	-11.3237
でござるか	-11.3238
訳には	-11.3239
跳	-11.3239
の言葉を	-11.3242
盛り上が	-11.3244
許せ	-11.3245
あぶ	-11.3245
ようと思って	-11.3247
植え	-11.3249
をかける	-11.3254
その他	-11.3256
五年	-11.3258
相談して	-11.3262
両手	-11.3265
ふざけた	-11.3267
ランス	-11.3267
ポチ	-11.3269
匠	-11.3269
ウィリアム	-11.327
噴	-11.327
宇	-11.327
メッセージ	-11.327
z	-11.327
放課後	-11.327
股	-11.327
ビックリ	-11.327
紫苑	-11.327
選択肢	-11.327
紳士	-11.327
推測	-11.3271
エドガー	-11.3271
自己紹介	-11.3271
慎重	-11.3272
挑戦	-11.3273
キタ	-11.3277
口説	-11.3278
出て来た	-11.3279
龍太	-11.3279
ご褒美	-11.3279
戦略	-11.3279
ダメだよ	-11.3282
上位	-11.3283
お嬢さま	-11.3284
お前さんは	-11.3288
多数	-11.3288
気にしない	-11.3289
借	-11.3289
教えてくれる	-11.3292
伝説の	-11.3294
問題はない	-11.3296
十郎	-11.3303
言っているの	-11.3305
行つて	-11.3307
裏切	-11.3309
じゃった	-11.3313
たくはない	-11.3317
お伺い	-11.3318
やって来た	-11.3326
この女	-11.3331
死にたくない	-11.3332
訳だ	-11.3335
なんのこと	-11.3336
込まれた	-11.3337
おおおおおおおお	-11.3338
見物	-11.3339
頑張	-11.334
含め	-11.3341
分からないけど	-11.3341
買わ	-11.3343
出したら	-11.3345
ハハハハハ	-11.3345
だんな	-11.3346
になっちゃ	-11.3348
させてくれ	-11.3348
知っているのか	-11.3355
ヨシ	-11.3355
ベラ	-11.3357
いるんだよ	-11.3359
になってしまった	-11.336
殴られ	-11.336
聞きます	-11.3361
一向	-11.3365
斬る	-11.3365
ハハハハハハ	-11.3366
大名	-11.3368
に決まっている	-11.337
らっしゃる	-11.3374
んだけれど	-11.3376
来たのか	-11.3377
いいと思う	-11.3377
革	-11.3381
谷さん	-11.3382
そこにいる	-11.3382
神々	-11.3387
裕	-11.3387
粋	-11.3387
巾	-11.3388
謂	-11.3388
賃	-11.3388
くれぐれも	-11.3388
可笑しい	-11.3388
ちょっと待ってて	-11.3388
誘導	-11.3389
遅刻	-11.3389
銀貨	-11.3389
壊滅	-11.3389
行けない	-11.3389
警部	-11.339
礼儀	-11.339
二人きり	-11.3391
やり過ぎ	-11.3392
付近	-11.3392
美味しく	-11.3392
係長	-11.3393
ライフ	-11.3394
革命	-11.3394
職員	-11.3395
扱う	-11.3397
知れぬ	-11.3397
子様	-11.3398
ケンカ	-11.3398
じゃのう	-11.34
患者	-11.3402
今回の件	-11.3404
死神	-11.3404
と言われて	-11.3405
待ってた	-11.3407
くなってきた	-11.3408
天井	-11.3408
気がします	-11.341
女装	-11.3411
不要	-11.3413
そう思います	-11.3417
おわかり	-11.3421
敗れ	-11.3421
其処	-11.3422
あたし達	-11.3422
ローブ	-11.3424
この世界に	-11.3425
ぉぉぉぉぉ	-11.3425
▁それはそうと	-11.3428
ひとまず	-11.3429
頼むぞ	-11.3431
あらば	-11.3431
決まっている	-11.3432
確実	-11.3433
ローラ	-11.3434
怪人	-11.3436
三千	-11.3437
団体	-11.3438
オーガ	-11.3438
紛	-11.3438
が少ない	-11.344
会わせ	-11.3442
いたので	-11.3444
ところがある	-11.3446
銀行	-11.345
せっかくの	-11.3451
あげるよ	-11.3459
たくなる	-11.3461
生意気な	-11.3462
じゃないだろ	-11.3462
頂ける	-11.3463
になってしまう	-11.3463
本日は	-11.3467
若様	-11.347
ことになります	-11.3475
うわぁ	-11.3479
ご無事	-11.3481
ぅぅ	-11.3485
ありそう	-11.3486
▁くぅ	-11.3489
だったのです	-11.3494
成功した	-11.3494
という意味	-11.3495
やらせて	-11.35
おやつ	-11.3501
大切	-11.3501
ニク	-11.3502
臓	-11.3504
ヴィー	-11.3506
尼	-11.3506
軟	-11.3507
テメエ	-11.3507
シャミセン	-11.3507
朝比奈	-11.3507
貝	-11.3507
化粧	-11.3507
詳細	-11.3507
憲	-11.3507
軍曹	-11.3508
領域	-11.3509
採取	-11.3509
伊勢	-11.351
冷え	-11.351
おかわり	-11.3511
要素	-11.3514
信仰	-11.3514
飼い	-11.3514
を以て	-11.3515
滅び	-11.3516
まいりました	-11.3516
頼むから	-11.3516
を叩き	-11.3517
マジック	-11.3518
陸軍	-11.3522
あれほど	-11.3523
中条	-11.3523
だけじゃなくて	-11.3526
日本語	-11.3526
▁くっそ	-11.3526
作成	-11.3527
コル	-11.3527
しておこう	-11.353
四つ	-11.353
出来ました	-11.3531
新しく	-11.3533
聖夜	-11.3533
あげます	-11.3533
酔って	-11.3534
おもしろい	-11.3536
所有	-11.3538
あああああああああ	-11.3538
敵機	-11.3539
みつき	-11.3539
ねばならん	-11.3539
嘘つき	-11.3541
やすく	-11.3542
してくれよ	-11.3543
ようとしている	-11.3545
筈です	-11.355
止められ	-11.3554
と言ったら	-11.3555
この通り	-11.3557
仕掛けて	-11.3557
邪魔する	-11.3558
それがどうした	-11.3559
小鳥	-11.356
しておいた	-11.3561
売れる	-11.3562
ような事	-11.3563
こんな時に	-11.3563
エクス	-11.3565
レイラ	-11.3567
前まで	-11.357
だったんだよ	-11.3575
怒らせ	-11.3576
つもりですか	-11.3579
神楽	-11.358
今年の	-11.3581
奇妙	-11.3582
われている	-11.3583
あの男は	-11.3585
――――!!	-11.3585
しますので	-11.3588
分らない	-11.3589
仰って	-11.3589
っしょ	-11.3593
ミン	-11.3594
扱	-11.3594
お土産	-11.3597
と思ったのに	-11.3599
クール	-11.36
くれている	-11.3601
帰れる	-11.3605
どうじゃ	-11.3605
集まり	-11.3606
大きな声	-11.3619
動ける	-11.362
達者	-11.3621
ものではありません	-11.3621
込まれて	-11.3623
わからなく	-11.3623
▁ぐぬぬ	-11.3624
参謀	-11.3625
匿	-11.3627
浸	-11.3627
塊	-11.3627
お詫び	-11.3627
コントロール	-11.3627
當	-11.3627
久し振り	-11.3627
詐欺	-11.3627
寛	-11.3627
胡	-11.3628
よろしければ	-11.3628
凝	-11.3628
淡	-11.3628
辛抱	-11.3628
ロリコン	-11.3628
珍しく	-11.3629
宿題	-11.3629
放題	-11.3629
近づけ	-11.3629
を止める	-11.363
失敬	-11.363
嬉しそう	-11.363
孤児院	-11.3631
もらえますか	-11.3631
ミーシア	-11.3631
はじめまして	-11.3631
きさま	-11.3632
揉め	-11.3634
いかに	-11.3635
殴る	-11.3636
私たちも	-11.3637
を助けた	-11.3638
貸す	-11.3641
幹部	-11.3641
目立つ	-11.3642
知られ	-11.3648
指名	-11.365
を求めて	-11.3658
ナオフミ様	-11.366
してたら	-11.3661
溢れ	-11.3662
のではないでしょうか	-11.3665
工作	-11.367
くれるかな	-11.3674
遺体	-11.3676
ピカ	-11.3679
されています	-11.368
っぽく	-11.3685
言ってるんだ	-11.3686
少なく	-11.3686
んじゃないかしら	-11.3687
外見	-11.3688
役に立て	-11.3692
折り	-11.3695
はいはい	-11.3695
だけですよ	-11.3699
頼みます	-11.3701
シリウス	-11.3701
馬鹿者	-11.3702
そうだし	-11.3704
ヘリ	-11.3706
通路	-11.3721
祐	-11.3722
女中	-11.3725
問題がある	-11.3725
ざま	-11.3725
出掛け	-11.3727
オオオオ	-11.3731
お尻	-11.3731
1000	-11.3734
吐き	-11.3734
遂に	-11.3737
褒美	-11.374
大金	-11.3741
そのようなこと	-11.3742
70	-11.3744
流れて	-11.3744
奥方	-11.3744
融	-11.3748
糧	-11.3748
ホワイト	-11.3749
メガネ	-11.3749
ラフタリア	-11.3749
泰	-11.3749
苛	-11.3749
梓	-11.3749
捕虜	-11.3749
盲	-11.3749
侵攻	-11.3749
監督	-11.3749
らつしや	-11.375
その点	-11.375
恐れ入ります	-11.375
髪の毛	-11.375
下手に	-11.3751
ラジオ	-11.3751
こうなった	-11.3751
格闘	-11.3751
してもらって	-11.3754
シノブ	-11.3754
継ぎ	-11.3754
どうしたんです	-11.3754
謝罪	-11.3756
廻り	-11.3757
物資	-11.3757
お願いいたします	-11.3757
お茶会	-11.376
よろし	-11.376
▁むー	-11.376
▁どうしてですか	-11.3761
一斉	-11.3762
売った	-11.3763
ことが出来る	-11.3764
どれぐらい	-11.3764
おまえが	-11.3765
と思われる	-11.3765
すぎない	-11.3767
お陰で	-11.3769
朱莉	-11.377
ラッツ	-11.3771
愛情	-11.3771
話せる	-11.3775
蹴り	-11.3775
何のために	-11.3777
▁そんなわけ	-11.3778
られぬ	-11.3782
しやがる	-11.3782
食べない	-11.3785
疑い	-11.3786
世界中	-11.3786
ゲホ	-11.3788
早々	-11.3789
言わせ	-11.3789
いたけど	-11.3793
フェン	-11.3799
になりそうだ	-11.3803
ネイ	-11.3805
止ま	-11.3806
消して	-11.3807
決まってる	-11.3809
の指示	-11.3809
有ります	-11.381
予定通り	-11.381
お宅	-11.3818
叔母	-11.382
染め	-11.3823
なければいけない	-11.3824
▁ねえねえ	-11.3827
事業	-11.3827
与えられ	-11.3827
我々も	-11.3832
私の方	-11.3836
トラップ	-11.3838
シオン	-11.3839
手術	-11.384
上がれ	-11.3841
であろうと	-11.3843
られていた	-11.3845
瞬	-11.3847
an	-11.3848
パッ	-11.3854
おくれよ	-11.3863
二千	-11.3863
になること	-11.3865
知らないのか	-11.3865
拡	-11.3866
恐い	-11.3866
到	-11.3867
盟	-11.3869
稲	-11.3871
のだがな	-11.3871
釈	-11.3871
些	-11.3872
弁護士	-11.3873
沿	-11.3873
すまなかった	-11.3873
墨	-11.3873
輸送	-11.3873
木星	-11.3873
何らかの	-11.3873
良し	-11.3874
センパイ	-11.3874
スラヴァ	-11.3874
以降	-11.3874
亡くなった	-11.3875
装甲	-11.3875
違反	-11.3876
フォロー	-11.3876
死刑	-11.3876
降参	-11.3876
を入れる	-11.3876
らなきゃ	-11.3877
奴だな	-11.3878
関東	-11.3878
だんだん	-11.3879
処へ	-11.388
んなこと	-11.388
この船	-11.3881
リーゼ	-11.3882
申され	-11.3883
観光	-11.3883
専用	-11.3884
を騙	-11.3884
抜けた	-11.3884
聞いたら	-11.3886
屋根	-11.3887
根性	-11.3887
足止め	-11.3888
次期	-11.3888
ことをした	-11.3889
色んな	-11.389
ティナ	-11.389
ぁぁぁっ	-11.3892
出来なかった	-11.3894
って意味	-11.3895
このままだと	-11.3895
解る	-11.3896
冷や	-11.3901
やめる	-11.3901
いいわね	-11.3903
調達	-11.3907
グレイ	-11.391
狙って	-11.3911
帝都	-11.3912
どす	-11.3913
あえて	-11.3914
判った	-11.3917
ここに来る	-11.3917
わけないじゃない	-11.392
納め	-11.3922
慌て	-11.3922
神聖	-11.3923
ガール	-11.3924
ずとも	-11.3926
詩子	-11.3929
が出てきた	-11.3929
いなければ	-11.3929
スル	-11.393
まとめ	-11.393
相当な	-11.3932
日々	-11.3932
くなっちゃう	-11.3937
てしまいます	-11.3938
ハーフ	-11.3938
を始める	-11.3943
薄い	-11.3946
避けて	-11.3953
覚えてない	-11.3956
おれも	-11.3957
その上	-11.3958
選んだ	-11.3959
どうなるんだ	-11.3959
わたくしに	-11.396
クセ	-11.3961
どれも	-11.3961
あんた達	-11.3962
何日	-11.3963
大人しくして	-11.3966
こっちから	-11.3966
心持	-11.3966
だれか	-11.3972
乗る	-11.3973
を得る	-11.3975
捨てた	-11.3976
おかしくない	-11.3977
このゲーム	-11.3977
エエ	-11.3979
成人	-11.398
ぬけ	-11.3981
使用人	-11.3981
そうにない	-11.3983
できるように	-11.3983
覧	-11.3984
とっくに	-11.3985
出席	-11.3986
聖剣	-11.3988
こっちに来	-11.3992
なんて言う	-11.3996
遭	-11.3997
見つけて	-11.3997
偏	-11.3998
睦	-11.3998
紐	-11.3998
疎	-11.3998
装填	-11.3998
んじゃないわよ	-11.3998
障害	-11.3999
唯一の	-11.3999
テンション	-11.3999
VR	-11.4
毎度	-11.4
当たらない	-11.4003
喋り	-11.4003
主人公	-11.4003
ではないのですか	-11.4007
まいります	-11.4008
寿命	-11.4009
黄金	-11.4011
難しく	-11.4012
崩壊	-11.4013
判らない	-11.4014
強くなる	-11.4021
を持た	-11.4023
やがて	-11.4024
答える	-11.4026
早う	-11.4027
だと思ってた	-11.4027
トーマ	-11.4028
ご機嫌	-11.4031
朝倉	-11.4031
張る	-11.4032
カッコ	-11.4035
というやつ	-11.4037
そんなこと言って	-11.4038
そうですよね	-11.4038
他人に	-11.404
そんなことはない	-11.4041
合わせた	-11.4043
戻ってくる	-11.4045
▁何故だ	-11.4048
の口から	-11.4049
出会い	-11.4051
余計に	-11.4051
▁痛っ	-11.4052
双子	-11.4052
ようとする	-11.4053
立たない	-11.4053
こんなとこ	-11.4059
違うんだ	-11.406
しつつ	-11.4061
レド	-11.4063
寄せて	-11.4064
々しく	-11.4066
らしくて	-11.4067
困難	-11.4068
帰らない	-11.4069
馬鹿にして	-11.407
どうしてこんな	-11.4074
顔してる	-11.4077
いえば	-11.408
分かったわ	-11.4083
燃	-11.4091
思わなかった	-11.4097
死者	-11.4099
待たせて	-11.4103
を倒して	-11.4103
行かれる	-11.4106
きゅう	-11.4109
は無かった	-11.4109
キル	-11.4112
進化	-11.4115
ラフィ	-11.4115
蔭	-11.4117
充	-11.4117
木村	-11.4117
剛	-11.4117
閣	-11.4118
どういうつもり	-11.4118
とかある	-11.4121
でありますか	-11.4121
殺さない	-11.4123
雛	-11.4124
蠅	-11.4124
膨	-11.4124
干渉	-11.4124
ワタクシ	-11.4124
アタック	-11.4124
スマホ	-11.4124
瞳	-11.4124
きっかけ	-11.4125
餓鬼	-11.4125
も多い	-11.4125
ドロップ	-11.4125
訪ねて	-11.4126
勇志	-11.4126
感染	-11.4127
レーション	-11.4127
悪戯	-11.4128
を救う	-11.4128
毎年	-11.4129
構成	-11.413
らしくない	-11.4131
選び	-11.4132
見よう	-11.4132
選べ	-11.4132
生涯	-11.4133
費用	-11.4135
この娘	-11.4137
目の前で	-11.4138
クソガキ	-11.4138
になるのか	-11.4138
▁いやいやいや	-11.4139
初めて見た	-11.4139
小学生	-11.4144
ご迷惑	-11.4144
処女	-11.4144
ヒール	-11.4145
いいのですか	-11.4145
預かって	-11.4146
りょ	-11.4147
いいんだな	-11.4153
トリア	-11.4154
アキト	-11.4155
御苦労	-11.4162
って事か	-11.4164
日常	-11.4165
おのれ	-11.4166
盗み	-11.4166
固め	-11.4169
気楽	-11.4171
集めて	-11.4172
唱え	-11.4175
を集めて	-11.4179
絶え	-11.418
終わったら	-11.418
した後	-11.4181
ありがとな	-11.4181
別れた	-11.4183
を持ってる	-11.4184
使ってる	-11.4185
書け	-11.4185
しているのです	-11.4187
して来た	-11.4192
クラウ	-11.4192
攻めて	-11.4192
ありませんわ	-11.4196
んだけどなぁ	-11.4198
消える	-11.42
帰りましょう	-11.4204
殺さ	-11.4213
あの日	-11.4214
になられた	-11.4215
尉	-11.4218
数え	-11.4221
罪人	-11.4222
訪れ	-11.4223
この件	-11.4223
花火	-11.4225
惚れて	-11.4227
噛み	-11.4231
でいいから	-11.4232
ああああああああああ	-11.4234
娘さん	-11.4239
過ごし	-11.424
はどうなんだ	-11.4246
宣	-11.4249
趣	-11.4251
緋	-11.4252
拒	-11.4252
屑	-11.4252
刈	-11.4252
+	-11.4252
舵	-11.4252
ヂ	-11.4252
錠	-11.4253
を殺せ	-11.4253
庁	-11.4253
雑誌	-11.4253
見習い	-11.4253
開拓	-11.4253
確率	-11.4254
野蛮	-11.4254
戸田さん	-11.4256
離脱	-11.4256
くくく	-11.4256
効かない	-11.4256
があろう	-11.4256
伊東	-11.4257
ぎゅ	-11.4258
耐	-11.4258
理論	-11.4258
ッスか	-11.4259
悪党	-11.426
トリック	-11.4262
喋る	-11.4262
んねん	-11.4266
尤も	-11.4266
待ち合わせ	-11.4267
周りに	-11.4268
における	-11.4268
せられる	-11.4271
ハート	-11.4272
達成	-11.4272
文明	-11.4273
観察	-11.4276
に任せ	-11.4277
面白くない	-11.428
黒田	-11.4281
生き返	-11.4281
――――――――――	-11.4283
ベイ	-11.4284
とでも思って	-11.4284
ヒュ	-11.4284
カイト	-11.4285
出したの	-11.4286
多かった	-11.4289
を貸して	-11.4289
いりません	-11.4289
地震	-11.4295
座り	-11.4297
下がれ	-11.4298
ああぁぁ	-11.4301
を選んだ	-11.4306
駄目よ	-11.4306
ぃぃぃぃ	-11.4309
駄目だよ	-11.431
こゝ	-11.4311
住んでる	-11.4314
追う	-11.4316
に向けて	-11.4316
成立	-11.4317
といったところ	-11.4319
養子	-11.4324
この場で	-11.433
ますます	-11.4331
夢中	-11.4332
年間	-11.4332
行きました	-11.4333
さずに	-11.4336
お願いだから	-11.4338
届いて	-11.4341
のことが好き	-11.4342
上陸	-11.4347
を買う	-11.4349
約束した	-11.4354
オレも	-11.4356
駄目なの	-11.4359
柴	-11.436
ことがあって	-11.4361
焼いて	-11.4362
番頭	-11.4363
黙ってろ	-11.4365
お顔	-11.4374
彼等の	-11.438
炊	-11.4382
著	-11.4382
昌	-11.4382
碌	-11.4382
抹	-11.4382
マスコミ	-11.4382
自衛隊	-11.4382
藍	-11.4382
吊	-11.4382
チョコレート	-11.4383
崖	-11.4383
ぜんぜん	-11.4383
悲鳴	-11.4383
財布	-11.4383
おねがい	-11.4383
で御座る	-11.4384
あがり	-11.4385
▁といいますと	-11.4387
救助	-11.4387
ゆうべ	-11.4388
子供達	-11.4388
合図	-11.4391
毎回	-11.4393
言語	-11.4393
クビ	-11.4393
シカ	-11.4394
進路	-11.4394
しょー	-11.4394
聞え	-11.4396
これだから	-11.4396
祝い	-11.4397
どう思って	-11.4397
今回も	-11.4399
何卒	-11.44
不能	-11.4401
抱えて	-11.4401
引っかか	-11.4401
共通	-11.4402
握って	-11.4405
▁知るか	-11.4408
みなさい	-11.4408
と言われる	-11.4408
頂けますか	-11.4408
ヤバ	-11.4411
来てください	-11.4414
ガラス	-11.4416
証言	-11.442
起きてる	-11.4422
帰って来た	-11.4424
ることができる	-11.4424
煩	-11.4428
取れない	-11.4432
おおおおおおおおおおおおおおおお	-11.4435
新人	-11.4436
間に合う	-11.4437
ブン	-11.4437
トモ	-11.4438
これでいい	-11.444
そこそこ	-11.4441
忘れていた	-11.4441
いいじゃないか	-11.4445
お使い	-11.4447
マッチ	-11.4448
リャー	-11.445
前田	-11.4451
ーーーーーー	-11.4453
きまって	-11.4454
25	-11.4454
わしに	-11.4458
通じて	-11.4466
のあいだ	-11.4467
加えて	-11.4468
こういう時	-11.4468
捕まえた	-11.4469
見てない	-11.4469
を振る	-11.447
ヨリ	-11.4472
していません	-11.4474
もらっていい	-11.4475
ォォ	-11.4477
お気の毒	-11.4478
わけないでしょ	-11.4479
迷い	-11.4479
してるのか	-11.448
メェ	-11.4481
盗んだ	-11.4481
数年	-11.4483
何事も	-11.4486
行う	-11.4487
大型	-11.4487
その格好	-11.4489
リャ	-11.4492
ああああああああああああ	-11.4494
お迎え	-11.4494
メモ	-11.4499
事務	-11.4499
乙	-11.4502
こうした	-11.4505
デブ	-11.4511
苗	-11.4512
僚	-11.4513
中学生	-11.4513
戒	-11.4514
丁寧に	-11.4514
喫茶店	-11.4514
缶	-11.4514
圧倒的	-11.4514
頬	-11.4514
桑	-11.4514
宛	-11.4514
オヤジ	-11.4514
アンデッド	-11.4515
演劇	-11.4515
(・・・)	-11.4515
因縁	-11.4515
制圧	-11.4516
演技	-11.4516
世紀	-11.4516
ロケット	-11.4517
曹長	-11.4517
衛星	-11.4518
反乱	-11.4518
お城	-11.4519
キョ	-11.4519
テメー	-11.452
加速	-11.452
採用	-11.4523
隠居	-11.4523
狙え	-11.4523
ヒント	-11.4524
交戦	-11.4525
ネーム	-11.4525
何言ってるの	-11.4526
口調	-11.4526
ぉおおお	-11.453
いやがる	-11.453
呼び方	-11.4533
浪人	-11.4533
協会	-11.4534
食った	-11.4538
数字	-11.4538
を襲った	-11.4539
怒られる	-11.4539
ヴィル	-11.4542
ふぇ	-11.4544
▁むむ	-11.4544
流す	-11.4545
答えろ	-11.4547
関係がある	-11.4547
なくなったら	-11.456
十日	-11.4562
右手	-11.4563
んじゃねえよ	-11.4563
こむ	-11.457
▁クッ	-11.457
疑う	-11.4573
痛く	-11.4574
責	-11.4574
ないような	-11.4574
こわい	-11.4574
そっと	-11.4576
ぁぁぁぁぁぁぁぁ	-11.458
そうだよな	-11.4583
喜ば	-11.4583
喰い	-11.4584
リンゴ	-11.4584
直せ	-11.4587
に乗った	-11.4587
寂しく	-11.4588
に勝てる	-11.4589
市場	-11.459
アスト	-11.4595
を引く	-11.4598
有った	-11.4603
いつの間にか	-11.4605
されてた	-11.4608
ーーーーーーーーー	-11.4609
ぐぐ	-11.461
触れる	-11.4611
アリア	-11.4612
はっきりと	-11.4615
高級	-11.462
潰	-11.462
持たせ	-11.4621
▁おおー	-11.4624
せっかくだから	-11.4629
一般人	-11.463
バスケ	-11.4631
巨大な	-11.4634
私ども	-11.4636
ニン	-11.4641
止まり	-11.4644
んじゃねぇよ	-11.4644
躍	-11.4647
嗜	-11.4647
擦	-11.4647
理不尽	-11.4647
Z	-11.4647
と呼ばれる	-11.4647
御屋形様	-11.4647
デザイン	-11.4647
ウウウウ	-11.4647
稀	-11.4647
蓄	-11.4647
パートナー	-11.4648
キョウスイ	-11.4648
滞在	-11.4648
特訓	-11.4648
退避	-11.4648
シェイラ	-11.4648
中央政府	-11.4648
オッサン	-11.4648
追って	-11.4649
テーブル	-11.4649
変な事	-11.4649
忠誠	-11.465
じつは	-11.4651
美濃	-11.4653
解散	-11.4654
しやがった	-11.4655
フラグ	-11.4655
まいった	-11.4655
入院	-11.4656
金額	-11.4656
チーズ	-11.4657
痩せ	-11.4659
どうすんの	-11.4662
溶	-11.4663
往って	-11.4664
▁さよう	-11.4666
二人共	-11.4666
賞金	-11.4666
エッチ	-11.4672
マキ	-11.4673
それはそれで	-11.4674
武者	-11.4676
en	-11.4677
吸い	-11.4678
と同時に	-11.4679
ズラ	-11.4682
後藤	-11.4684
▁まぁまぁ	-11.4684
優秀	-11.4692
おばあちゃん	-11.4693
切れた	-11.4698
参りましょう	-11.4702
合え	-11.4703
先代	-11.4705
押す	-11.4706
ランジェ	-11.471
今では	-11.4712
二回	-11.4712
生意気	-11.4713
極めて	-11.4716
拵え	-11.4718
一昨日	-11.4722
つちや	-11.4725
もらいましょう	-11.4727
壊す	-11.4727
熱心	-11.4729
ボロ	-11.473
お越し	-11.4731
時刻	-11.4737
すぐにでも	-11.4737
委員	-11.4739
なさいまし	-11.4743
逃げよう	-11.4743
午	-11.4744
心配した	-11.4746
ブロ	-11.4747
その間に	-11.4748
出ます	-11.4751
良いんですか	-11.4751
ねばならない	-11.4756
クライン	-11.4758
感じた	-11.4759
▁もー	-11.4763
卒	-11.4763
狂い	-11.4763
じゃないんだから	-11.4767
なかったのですか	-11.4767
みたいだよ	-11.4768
増え	-11.4776
後ろから	-11.4776
警	-11.4776
考え方	-11.4779
骸	-11.4781
話をする	-11.4782
彫	-11.4782
鎌	-11.4782
慈	-11.4782
薙	-11.4782
癪	-11.4782
潜水艦	-11.4782
成る程	-11.4782
アニキ	-11.4783
経営	-11.4784
観測	-11.4784
○○	-11.4784
必殺	-11.4784
受付	-11.4784
も含めて	-11.4784
ゞ	-11.4784
真っ赤	-11.4785
敗北	-11.4785
教団	-11.4785
▁ヘエ	-11.4786
法律	-11.4786
づらい	-11.4786
名乗る	-11.4787
思想	-11.4787
交流	-11.4787
動画	-11.4788
ちょうどいい	-11.4788
記事	-11.4789
姉貴	-11.4789
)”	-11.479
鈴音	-11.479
同じような	-11.479
フィル	-11.479
このごろ	-11.4791
前衛	-11.4791
に限って	-11.4791
領主様	-11.4793
天国	-11.4794
ヒメ	-11.4797
コピー	-11.4797
眠い	-11.4798
思いついた	-11.4798
キュウ	-11.4799
くらいしか	-11.4805
振って	-11.4805
くれたまえ	-11.4807
んじゃん	-11.4807
荒れ	-11.4808
一目	-11.4808
マスク	-11.4808
お互い様	-11.481
を追って	-11.4812
最低限	-11.4812
アアアア	-11.4812
なくっちゃ	-11.4813
ってことだよ	-11.4821
わかってます	-11.4827
注目	-11.4834
強かった	-11.4836
持ってくる	-11.4836
みたいなもん	-11.4837
行っちゃ	-11.4838
開ける	-11.4839
ギア	-11.484
サイト	-11.484
いいぜ	-11.4841
思い出す	-11.4849
メリー	-11.485
ハズ	-11.4852
これで終わり	-11.4857
何とかなる	-11.4858
大変なこと	-11.4859
リリス	-11.4861
割には	-11.4862
本題	-11.4864
エディ	-11.4865
と存じます	-11.4865
アラン	-11.4866
出てき	-11.4868
吐いて	-11.4871
団子	-11.4872
レイさん	-11.4876
公開	-11.4876
クター	-11.4877
ちぃ	-11.488
出ました	-11.4881
武家	-11.4881
きつい	-11.4883
カッコいい	-11.4886
あわせ	-11.4886
のどこが	-11.4886
飛ばす	-11.4888
病人	-11.4889
グレー	-11.4892
存じません	-11.4896
安心した	-11.4903
リリィ	-11.4907
どうしたんだよ	-11.4908
があるだろう	-11.4912
連れて行く	-11.4913
懇	-11.4919
鳩	-11.4919
栗	-11.4919
胴	-11.4919
衰	-11.4919
串	-11.4919
レシピ	-11.4919
擬	-11.4919
会いたかった	-11.4919
慧	-11.4919
発揮	-11.492
ババア	-11.4921
身の上	-11.4921
明るい	-11.4921
刺激	-11.4921
教徒	-11.4922
教皇	-11.4923
西洋	-11.4925
▁せや	-11.4925
を使えば	-11.4925
引っ越し	-11.4926
気もする	-11.493
まこと	-11.4931
車両	-11.4931
届く	-11.4931
となります	-11.4931
テッド	-11.4932
盾の勇者	-11.4932
気がついた	-11.4933
もしもし	-11.4934
止まる	-11.4936
拾って	-11.4937
プール	-11.4937
っぱなし	-11.4938
諦める	-11.4941
此方へ	-11.4945
リップ	-11.4946
レーザー	-11.4948
残ってる	-11.4948
埋	-11.4949
多すぎ	-11.495
カップル	-11.495
ねーだろ	-11.4951
でげす	-11.4951
僅か	-11.4953
を与えて	-11.4956
ハゲ	-11.4956
ラスト	-11.4958
▁やー	-11.4958
今川	-11.4958
御主人	-11.4963
クソッ	-11.4964
じり	-11.4966
研究所	-11.4968
力がある	-11.4971
あるのですか	-11.4971
出撃	-11.4975
カップ	-11.4978
いるわけ	-11.4978
知らせて	-11.4982
になるだろう	-11.4987
が必要だ	-11.499
みゃ	-11.499
言われたら	-11.499
回転	-11.4992
おやすみなさい	-11.4992
堅い	-11.4993
私としては	-11.4994
アハハ	-11.4999
モル	-11.5005
杏	-11.5005
カレ	-11.5016
出現	-11.5016
ラーメン	-11.5019
やりましょう	-11.5021
殺すぞ	-11.5022
勘違いして	-11.5024
下手人	-11.5025
何してんだ	-11.5026
おられます	-11.5027
いっしょ	-11.503
慌てて	-11.503
通す	-11.5038
和泉	-11.5038
騎兵	-11.5043
空き	-11.5044
引いた	-11.5047
意気	-11.5047
いるところ	-11.5047
何度か	-11.5049
追いかけて	-11.5056
乞	-11.5057
くれてありがとう	-11.5057
摘	-11.5058
楠	-11.5058
セクハラ	-11.5058
初対面	-11.5058
惡	-11.5058
お言葉に甘え	-11.5058
ブレーカー	-11.5058
ごしゅじんさま	-11.5058
嫌な予感	-11.5058
敏	-11.5058
磁	-11.5058
お伝え	-11.5059
正式に	-11.5059
天狗	-11.5059
その代り	-11.5059
すばる	-11.506
八幡	-11.506
文章	-11.506
落ち着く	-11.506
くだらない	-11.5061
様々な	-11.5061
この戦い	-11.5062
預かり	-11.5062
騒ぐ	-11.5062
拍子	-11.5063
ないと思うけど	-11.5064
なくちゃいけない	-11.5064
楽しむ	-11.5065
キャミル	-11.5066
十万	-11.5067
不快	-11.5067
第四	-11.5068
キィ	-11.507
そう言った	-11.507
特殊な	-11.507
華黒	-11.5071
手を出す	-11.5071
弾丸	-11.5072
80	-11.5072
怒った	-11.5073
したいのですが	-11.5074
万歳	-11.5075
を得た	-11.5075
落とせ	-11.5075
ソース	-11.5078
ケース	-11.5079
言つて	-11.5082
辿り	-11.5088
冷め	-11.5091
邪魔をする	-11.5092
ルルルル	-11.5094
出てる	-11.5094
責任者	-11.5095
シラ	-11.5096
人格	-11.5097
ドライ	-11.5098
っていうんだ	-11.5099
いますので	-11.51
立っている	-11.5107
吉さん	-11.511
皇国	-11.5112
昼食	-11.5112
伝言	-11.5113
とは思うけど	-11.5114
進めて	-11.5115
インク	-11.5117
千里	-11.512
黒髪	-11.512
集めた	-11.513
積み	-11.5134
減る	-11.5135
ウォル	-11.5138
占領	-11.5138
米軍	-11.5138
申し出	-11.514
ごめんごめん	-11.5143
伺って	-11.5143
が好きなんだ	-11.5147
持たない	-11.515
しないといけない	-11.5151
どんなもの	-11.5156
ふざけるな	-11.5158
尋	-11.5159
ナオフミ	-11.5161
めぐ	-11.5163
考えない	-11.5166
御方	-11.5168
山田	-11.5168
まくって	-11.517
勿体ない	-11.517
起こった	-11.5172
叱られ	-11.5172
取られた	-11.5174
意味がある	-11.5176
ちゃいます	-11.5179
光栄です	-11.518
気持ちいい	-11.5183
欠け	-11.5183
っこい	-11.5188
レイス	-11.5189
指示を	-11.5197
扇	-11.5199
手に入る	-11.5199
伐	-11.5199
奮	-11.5199
冠	-11.5199
ご馳走	-11.5199
ビュー	-11.5199
▁グルルルゥ	-11.5199
カウント	-11.5199
ログアウト	-11.5199
めちゃくちゃ	-11.5199
伽	-11.5199
分析	-11.5199
肯定	-11.5199
課題	-11.5199
販売	-11.5199
而	-11.52
ターゲット	-11.52
面倒くさい	-11.52
佐伯	-11.52
出かけて	-11.5201
司祭	-11.5201
稼いで	-11.5202
くださいまし	-11.5202
皮肉	-11.5203
調理	-11.5204
メシ	-11.5205
来週	-11.5205
十字	-11.5206
見逃して	-11.5206
ミロク	-11.5207
んだろうけど	-11.5208
▁むう	-11.5208
結婚式	-11.5209
八郎	-11.5209
観音	-11.521
何を考えている	-11.5211
を求める	-11.5214
がおあり	-11.5214
白状	-11.5214
断言	-11.5215
正しく	-11.5215
訴	-11.5221
えばいい	-11.5227
裏切り者	-11.5228
戦い方	-11.5229
見つめ	-11.5236
カネ	-11.5239
言い出す	-11.5243
執事	-11.5243
大魔王	-11.5248
適当な	-11.525
ることが出来	-11.5253
出陣	-11.5253
使命	-11.5254
致す	-11.5255
似合って	-11.5258
しとる	-11.5262
なんすか	-11.5264
じゃアない	-11.5267
生きた	-11.5269
じゃなきゃ	-11.5271
ない限り	-11.5275
行けばいい	-11.5279
▁わーい	-11.5281
を手に入れた	-11.5281
どうしたのですか	-11.5283
広く	-11.5286
差別	-11.529
持って来	-11.529
嫌いなの	-11.529
カラス	-11.5294
を読む	-11.5294
構えて	-11.5294
超能力	-11.5297
ヴァー	-11.5297
たいと思います	-11.5298
少しばかり	-11.5305
リディア	-11.531
なくなり	-11.5311
ローズ	-11.5311
聞きたいことがある	-11.5312
タコ	-11.5316
よさそう	-11.5316
お祭り	-11.5319
一大事	-11.5322
宵	-11.5325
を捧げ	-11.5326
お知らせ	-11.5329
何を言っているの	-11.5333
と思つて	-11.5333
侵入者	-11.5334
堪え	-11.5334
というのですか	-11.5341
睡	-11.5341
申しました	-11.5342
湾	-11.5342
岳	-11.5342
同級生	-11.5342
魔道士	-11.5342
磯	-11.5342
きっちり	-11.5342
ぶっちゃけ	-11.5342
ありがたく	-11.5342
屍	-11.5342
酌	-11.5342
警告	-11.5342
設置	-11.5342
衝突	-11.5343
元帥	-11.5343
唄	-11.5343
稲葉	-11.5343
可能性が高い	-11.5343
災難	-11.5343
お師匠様	-11.5344
抱きしめ	-11.5344
水晶	-11.5345
哀れ	-11.5345
関連	-11.5347
自宅	-11.5347
単位	-11.5347
激しい	-11.5348
服装	-11.5349
青春	-11.5349
▁そうでしょうか	-11.5351
すすめ	-11.5352
まともな	-11.5353
すぎます	-11.5356
ポリ	-11.5357
いなくなった	-11.5362
始まって	-11.5363
目当て	-11.5365
愛している	-11.5374
ミング	-11.5375
利き	-11.5375
リスク	-11.5376
無理やり	-11.5376
これじゃあ	-11.5376
違うのか	-11.5377
してきます	-11.5378
何があったんだ	-11.5378
遭遇	-11.538
ブレイク	-11.5385
収め	-11.5386
面会	-11.5387
カフェ	-11.5388
ご両親	-11.5389
なりませぬ	-11.539
どういう事ですか	-11.5392
出ろ	-11.5393
▁ねぇねぇ	-11.5395
疲れる	-11.5395
おじいさん	-11.5396
解体	-11.5396
でーす	-11.5396
そうよね	-11.5397
んじゃなかったのか	-11.5399
はいるか	-11.5403
三好	-11.5403
に関わる	-11.5403
私の事	-11.5405
思えば	-11.5407
いらっしゃいました	-11.5408
占め	-11.5409
おるのだ	-11.5411
24	-11.5412
なんなんだよ	-11.5412
んじゃねえぞ	-11.5416
きゃあ	-11.542
片手	-11.5425
添え	-11.5426
そう言う事	-11.5426
とは言わない	-11.5429
と云った	-11.5435
大丈夫かい	-11.5436
移動する	-11.5441
を用意して	-11.5442
なさいますか	-11.5442
好きじゃない	-11.5448
現れる	-11.5449
この状況で	-11.5452
モラ	-11.5452
中に入って	-11.5454
救出	-11.5454
効いて	-11.5455
に入れる	-11.5455
チェンジ	-11.5456
ケイト	-11.5462
調べてみ	-11.5467
置かれ	-11.5468
するしかない	-11.5472
っぷり	-11.5474
物質	-11.5475
取られて	-11.548
すべ	-11.5481
奈ちゃん	-11.5484
関心	-11.5486
険	-11.5486
殊	-11.5486
こしらえ	-11.5486
縦	-11.5486
無茶苦茶	-11.5487
瓦	-11.5487
貌	-11.5487
NPC	-11.5487
綿	-11.5487
ミストラル	-11.5487
羨	-11.5487
無理矢理	-11.5487
鞭	-11.5487
コンピュータ	-11.5487
贔屓	-11.5487
しつこい	-11.5487
おまけに	-11.5487
連携	-11.5487
ハーレム	-11.5488
▁やったー	-11.5488
様の御	-11.5488
解釈	-11.5489
軌道	-11.5489
営業	-11.5489
の持ち主	-11.549
敬語	-11.549
ヒロイン	-11.549
補助	-11.549
じっくり	-11.5491
浄化	-11.5492
地区	-11.5493
パイロット	-11.5493
トマト	-11.5494
クッキー	-11.5495
んじゃねーよ	-11.5495
に相違ない	-11.5496
容姿	-11.5496
怒らない	-11.5498
避ける	-11.5501
降って	-11.5504
六人	-11.5506
考えます	-11.5507
ブス	-11.5509
入手	-11.5509
もらってもいい	-11.551
探知	-11.551
もございません	-11.5511
がんばれ	-11.5512
リリオン	-11.5513
キラー	-11.5514
を見つけて	-11.5515
三河	-11.5515
進行	-11.5521
しまーす	-11.5522
できている	-11.5522
転生	-11.5523
出張	-11.5524
耐えられ	-11.5525
見えません	-11.5527
敵襲	-11.5528
思い出せ	-11.5534
繰り返し	-11.5535
オール	-11.5538
を選んで	-11.5539
いいんですよ	-11.5551
メルティ	-11.5551
空いてる	-11.5558
麗華様	-11.5561
解消	-11.5566
つたら	-11.5568
あけて	-11.5572
宇宙人	-11.5575
迷惑をかけ	-11.5576
見覚え	-11.5581
好きだった	-11.5582
変えた	-11.5583
言わん	-11.5585
オレたち	-11.5587
▁うおおおお	-11.5588
してみよう	-11.5588
に至る	-11.5592
降りる	-11.5597
所長	-11.5598
心得て	-11.5604
読めない	-11.5604
八十	-11.5606
アンド	-11.5606
掴んで	-11.5612
幹	-11.5617
語り	-11.5619
広場	-11.562
お付き合い	-11.5622
いいかい	-11.5625
聞いてもいい	-11.5628
曹	-11.5628
覚えはない	-11.5629
開いた	-11.5633
ぼんやり	-11.5634
トカゲ	-11.5634
赴	-11.5634
穢	-11.5634
サポート	-11.5634
丼	-11.5634
舷	-11.5634
茜	-11.5634
亮	-11.5634
スーパー	-11.5634
洞	-11.5634
受験	-11.5634
悦	-11.5634
アルフィリース	-11.5634
泡	-11.5634
捕獲	-11.5634
保険	-11.5635
言われてみれば	-11.5635
補佐	-11.5636
コロニー	-11.5636
滅亡	-11.5636
の群れ	-11.5637
わがまま	-11.5637
じっとして	-11.5638
貰わ	-11.5639
時間稼ぎ	-11.5639
こっちゃ	-11.5639
に従う	-11.564
お疲れさま	-11.5641
げほっ	-11.5641
島津	-11.5642
余程	-11.5643
会津	-11.5644
ご主人	-11.5644
ミルク	-11.5645
扱って	-11.5647
お邪魔します	-11.5648
ダメなの	-11.5648
ぉおお	-11.5648
吉田	-11.5651
聞きたいこと	-11.5653
立花	-11.5653
王女様	-11.5659
ほほ	-11.5661
ご案内	-11.5661
戦線	-11.5662
どうにかして	-11.5662
しようぜ	-11.5666
おつもりですか	-11.5669
云えば	-11.5669
迷惑かけ	-11.5671
させられる	-11.5673
手伝え	-11.5674
和尚	-11.5675
彼方	-11.5677
es	-11.5678
救援	-11.5678
くださって	-11.5682
役に立た	-11.5686
バレた	-11.5687
の如く	-11.5691
出来ること	-11.5695
百万	-11.5696
何を言う	-11.5696
を考えると	-11.5697
しないのか	-11.5698
話を聞く	-11.5709
▁きゃー	-11.5709
なきゃならない	-11.5711
前後	-11.5713
なくてはならない	-11.5714
を変える	-11.5715
しませんでした	-11.5719
万一	-11.5727
▁ふふん	-11.5731
使っている	-11.5735
届	-11.5737
着替えて	-11.5739
金髪	-11.5739
一人だけ	-11.5744
を失って	-11.5745
余計	-11.5747
▁おはよ	-11.5747
国内	-11.5751
りょう	-11.5755
成程	-11.5759
見てくれ	-11.5761
サブ	-11.5761
そうとも	-11.5766
いかがでしょう	-11.5767
救われ	-11.5769
上げられ	-11.5772
この店	-11.5772
憶えて	-11.5777
住んでいる	-11.5779
随	-11.5779
千万	-11.578
キレ	-11.5782
偶	-11.5783
叡	-11.5783
家基様	-11.5783
慕	-11.5783
殖	-11.5783
柿	-11.5783
尺	-11.5783
抽	-11.5783
ごきげんよう	-11.5783
のんびり	-11.5783
逝	-11.5783
むずかしい	-11.5783
斜	-11.5783
消耗	-11.5783
プリシラ	-11.5784
やかましい	-11.5784
ウッド	-11.5784
包囲	-11.5784
ぢやありませんか	-11.5784
誘惑	-11.5784
宣伝	-11.5784
文化祭	-11.5784
魅力的	-11.5784
選挙	-11.5784
毎晩	-11.5784
鉱石	-11.5785
栄養	-11.5786
称号	-11.5786
放棄	-11.5786
騒いで	-11.5787
幸運	-11.5787
紅葉	-11.5788
ハンター	-11.5788
稼ぐ	-11.5789
首尾	-11.5791
撃破	-11.5792
天皇	-11.5793
王女殿下	-11.5794
薬草	-11.5796
繋がる	-11.5797
何しに	-11.58
漏れ	-11.58
あかん	-11.5801
タオル	-11.5802
主張	-11.5803
▁うわあああ	-11.5804
セレナ	-11.5808
捕まって	-11.5811
勿体	-11.5815
花嫁	-11.5817
楽しめ	-11.5819
山口	-11.5819
どの程度	-11.5821
組む	-11.5821
改め	-11.5823
ございましょう	-11.5824
上司	-11.5826
かねます	-11.5831
と思ったんだけど	-11.5831
伏せて	-11.5833
困ったこと	-11.5833
何しに来た	-11.5833
作家	-11.5835
一ヶ月	-11.5836
悔し	-11.5837
杏奈	-11.5841
旨い	-11.5844
済ませて	-11.5849
真理	-11.5851
ティン	-11.5854
驚きました	-11.5854
若者	-11.5855
出て来る	-11.5857
見てみたい	-11.5859
グラス	-11.5859
兄者	-11.5864
致しましょう	-11.5865
あげましょう	-11.5865
コスプレ	-11.5866
カイン	-11.5869
許せない	-11.5872
逃げ出した	-11.5872
交わ	-11.5875
忍者	-11.588
▁そんなことない	-11.5886
ちょー	-11.5888
――――――――――――	-11.5891
混ぜ	-11.5891
付いている	-11.5891
一緒に行く	-11.5894
が始ま	-11.5895
何を考えて	-11.5899
ライブ	-11.59
そうだったのか	-11.5902
ァァァァァ	-11.5903
持っていない	-11.5903
積んで	-11.5908
處	-11.591
でしたよね	-11.5914
選ばれた	-11.5916
あははははは	-11.5917
二番	-11.592
三島	-11.5924
ーーーーーーー	-11.5924
付き合ってる	-11.5927
いい感じ	-11.5929
審	-11.5931
たゞ	-11.5933
賛	-11.5933
摂	-11.5935
あちこち	-11.5935
棲	-11.5935
繕	-11.5935
聡	-11.5935
御存知	-11.5935
頑丈	-11.5935
とは限らない	-11.5935
眩	-11.5935
括	-11.5935
かも知れん	-11.5935
后	-11.5935
掲示板	-11.5935
霞	-11.5935
下さいませ	-11.5935
瑠璃	-11.5935
阻止	-11.5935
基準	-11.5935
お気に入り	-11.5935
▁猫丸	-11.5935
単独	-11.5935
スゴイ	-11.5936
現れて	-11.5936
くどい	-11.5937
予約	-11.5937
あんのか	-11.5937
泊まり	-11.5937
消費	-11.5937
られん	-11.5937
破棄	-11.5937
処置	-11.5938
九州	-11.5938
台無し	-11.5938
わけではありません	-11.5938
総統	-11.5939
休暇	-11.594
観念	-11.594
わからぬ	-11.594
を奪う	-11.594
住み	-11.5941
友情	-11.5941
ちょう	-11.5942
には関係ない	-11.5943
議会	-11.5944
増やし	-11.5945
残らず	-11.5945
犯行	-11.5947
願いたい	-11.5948
行かせて	-11.5949
不自由	-11.595
おねえちゃん	-11.595
事項	-11.5951
様な事	-11.5955
ふぉ	-11.5957
相性	-11.5958
バーン	-11.5963
それ程	-11.5963
三度	-11.5966
払え	-11.5967
舐めて	-11.5967
言ってんの	-11.5967
考えろ	-11.5969
万事	-11.5975
センチ	-11.5977
は初めてだ	-11.5977
助手	-11.5979
配下	-11.5982
あああああああああああ	-11.5987
そういうところ	-11.5991
見てください	-11.6
協力する	-11.6001
深夜	-11.6004
美しく	-11.6006
知れた	-11.6009
ローゼマイン	-11.6011
萌え	-11.6011
ぽん	-11.6011
亜人	-11.6014
わしら	-11.6018
者ども	-11.6018
引きず	-11.6022
会場	-11.6024
―――――	-11.6034
チャラ	-11.604
戦隊	-11.604
お祝い	-11.6043
シング	-11.6046
理由がある	-11.6049
あすこ	-11.6053
景気	-11.6056
言い出した	-11.6056
その娘	-11.606
六十	-11.6062
ボディ	-11.6063
そういう話	-11.6065
勘弁してくれ	-11.6073
持つて	-11.6076
行きません	-11.6078
苦しんで	-11.6079
挑	-11.608
▁ただいまー	-11.608
企	-11.6085
主任	-11.6087
莉	-11.6088
溝	-11.6088
洛	-11.6089
浩	-11.6089
颯	-11.6089
の分際で	-11.6089
可哀そう	-11.6089
歪	-11.6089
鱗	-11.6089
啓	-11.6089
ヘレナ様	-11.6089
ヘタレ	-11.6089
偉そうに	-11.6089
エエエエ	-11.6089
に相応しい	-11.6089
有り難い	-11.6089
の言うとおり	-11.609
耐性	-11.6091
it	-11.6091
気に入らない	-11.6091
合ってる	-11.6091
洲	-11.6091
製造	-11.6092
ちゅー	-11.6092
アクア	-11.6092
艦艇	-11.6092
爆破	-11.6092
医師	-11.6093
面白かった	-11.6093
サミュー	-11.6094
年寄り	-11.6095
ボタン	-11.6095
キュア	-11.6096
それなりの	-11.6097
死亡	-11.6097
殺人事件	-11.6097
皇帝陛下	-11.6098
例外	-11.6098
漬け	-11.6101
に過ぎない	-11.6102
不自然	-11.6102
是非とも	-11.6103
見つから	-11.6103
事が出来る	-11.6103
年頃	-11.6104
議員	-11.6105
選ばれ	-11.6109
けぇ	-11.6113
全力	-11.6116
鈴木	-11.6117
社員	-11.6119
従え	-11.6122
連隊	-11.6123
ケット	-11.6124
数学	-11.6124
覗き	-11.6125
そうとした	-11.6126
積り	-11.6126
困っている	-11.6127
跳ね	-11.613
気をつける	-11.6132
シルフィ	-11.6134
相場	-11.6134
オオオ	-11.6138
そうでもない	-11.6138
そうしたら	-11.6139
動機	-11.614
関係ある	-11.6143
それぐらい	-11.6145
正月	-11.6147
エール	-11.6153
判る	-11.6155
と思っていました	-11.6156
アルマ	-11.617
クルー	-11.617
飛ばさ	-11.6175
気になります	-11.6181
レート	-11.6186
店主	-11.619
屋上	-11.619
情け	-11.6195
合戦	-11.6195
ペラ	-11.6202
泊め	-11.6202
確認する	-11.6205
どうでした	-11.6206
何も知らない	-11.6207
ほほほ	-11.6208
難民	-11.6213
えぇぇ	-11.6215
何するの	-11.6216
有難	-11.6222
思えない	-11.6222
ない方がいい	-11.6225
話を聞いた	-11.6226
ということですね	-11.6228
あげようか	-11.6231
思われる	-11.6236
昧	-11.6244
というのなら	-11.6244
國	-11.6245
辱	-11.6245
變	-11.6245
槌	-11.6245
螺	-11.6245
守谷先生	-11.6245
パーセント	-11.6245
オレンジ	-11.6245
お仕置き	-11.6245
粘	-11.6245
禄	-11.6245
経緯	-11.6245
券	-11.6245
釘	-11.6245
とは思いますが	-11.6245
チート	-11.6245
お似合い	-11.6245
将棋	-11.6246
驚かせ	-11.6247
吸収	-11.6247
保存	-11.6248
騒がしい	-11.6248
泊まって	-11.6249
そうしよう	-11.625
固定	-11.625
言われてる	-11.6251
当日	-11.6252
死んでしまう	-11.6252
機密	-11.6254
最新	-11.6254
増援	-11.6255
そうなもの	-11.6257
ここに来て	-11.6257
みたかった	-11.6257
おぼえ	-11.6258
公式	-11.6258
玲奈	-11.626
朱王	-11.6265
解いて	-11.6265
最終的に	-11.6267
何事だ	-11.627
個人的に	-11.6271
オムダーマン軍	-11.6276
悪くはない	-11.6276
マップ	-11.628
地帯	-11.6282
悪口	-11.6285
裏切った	-11.6287
だもんね	-11.6289
甘いもの	-11.6292
やったこと	-11.6293
予想外	-11.6295
伸ばし	-11.6297
と思ったんだ	-11.6298
言わないでください	-11.6298
こちらです	-11.6305
無関係	-11.6306
邪神	-11.6311
よかったのに	-11.6312
コケ	-11.6312
売ってる	-11.6312
欲しいんだけど	-11.6313
入ってきた	-11.6313
お召し	-11.6313
んんん	-11.6315
誰もいない	-11.6315
据え	-11.6316
謝ら	-11.6316
加工	-11.6319
祖母	-11.6323
ニート	-11.6323
再開	-11.6324
ないうちに	-11.6326
手入れ	-11.6326
聞かせてくれ	-11.6328
開放	-11.633
信者	-11.6331
しておきたい	-11.6331
御座いません	-11.6333
抜いた	-11.6336
出せない	-11.6337
ルゥ	-11.6342
ハード	-11.6344
みたいなこと	-11.6345
場面	-11.6349
來た	-11.6349
見えなかった	-11.6351
持た	-11.6353
を失った	-11.6354
信長様	-11.6354
何してんの	-11.6357
だけでいい	-11.6358
手数	-11.6359
借りた	-11.636
らないでください	-11.6361
話してくれ	-11.6366
天野	-11.6367
なくても良い	-11.6371
オーラ	-11.6374
ヴィン	-11.6375
通った	-11.6375
嫌われて	-11.6378
つけない	-11.6383
申上げ	-11.6383
おきなさい	-11.6388
存分に	-11.6392
父ちゃん	-11.6393
読める	-11.6394
お望み	-11.6398
魔神	-11.6399
使われて	-11.6402
幽	-11.6403
兎に角	-11.6403
拘	-11.6403
掌	-11.6403
自業自得	-11.6403
ミレーゼ	-11.6404
▁リミッター	-11.6404
フレンド	-11.6404
斧	-11.6404
倫	-11.6404
捻	-11.6404
枠	-11.6404
プログラム	-11.6404
ログイン	-11.6404
巴	-11.6404
鞄	-11.6404
樽	-11.6404
ドワーフ	-11.6404
過ごす	-11.6404
昭	-11.6404
ホホホ	-11.6404
滅多に	-11.6404
庶民	-11.6404
汽車	-11.6404
▁承知しました	-11.6404
付与	-11.6405
サンキュー	-11.6406
断じて	-11.6406
消滅	-11.6406
暗号	-11.6407
挑む	-11.6408
かまいません	-11.6409
業務	-11.641
毛利	-11.641
おきながら	-11.6411
繋がり	-11.6412
無効	-11.6413
死なせ	-11.6414
ケガ	-11.6414
育ち	-11.6415
伝わって	-11.6416
ハウス	-11.6417
SS	-11.6419
一年生	-11.6419
感動	-11.642
いただければ	-11.6421
何やってんの	-11.6422
今宵	-11.6422
13	-11.6423
速く	-11.6423
おいた方がいい	-11.6424
言われている	-11.6424
それはどういう	-11.6425
どうかしたんですか	-11.6425
を動かす	-11.6425
固い	-11.6426
かかっている	-11.6427
呑気	-11.6428
バイク	-11.6431
得られる	-11.6432
スタート	-11.6434
マイン様	-11.6441
主君	-11.6442
▁いやいやいやいや	-11.6448
パック	-11.6449
言ひ	-11.6451
出たら	-11.6455
どういう意味ですか	-11.6457
になりまして	-11.6458
隊員	-11.646
集まる	-11.6462
千円	-11.6462
苦しみ	-11.6464
捕まった	-11.6465
放っておいて	-11.6469
愛想	-11.6469
もったい	-11.647
働いている	-11.647
伊達	-11.6472
云われ	-11.6481
この際	-11.6482
オイラ	-11.6482
ここにある	-11.6484
リュエ	-11.6486
避	-11.6489
いただきました	-11.649
手作り	-11.6493
こんな時間に	-11.6495
の方こそ	-11.6496
懸け	-11.65
なななな	-11.6501
煩い	-11.6505
当てて	-11.6505
魔王軍	-11.6507
女神様	-11.6513
貰えない	-11.6516
オオオオオオオ	-11.6525
させられ	-11.6528
間違えた	-11.6528
メロ	-11.6541
食える	-11.6542
に襲われた	-11.6544
ちゃだめ	-11.6546
外部	-11.6546
ウィンド	-11.6548
言いません	-11.6552
ロール	-11.6554
有りません	-11.6556
聴いて	-11.6557
世話になった	-11.6558
かしこ	-11.6559
全機	-11.6562
裏切り	-11.6562
詞	-11.6564
掃	-11.6564
欺	-11.6564
自転車	-11.6565
轟	-11.6565
銅	-11.6565
詣	-11.6565
保健室	-11.6565
本格的に	-11.6565
レオノーラ	-11.6565
塾	-11.6565
積極的	-11.6565
パソコン	-11.6565
お気に召	-11.6565
リムル	-11.6565
爾	-11.6565
ウサト	-11.6565
提	-11.6565
翌	-11.6565
童貞	-11.6565
バラバラ	-11.6566
見つかって	-11.6566
もしかすると	-11.6566
マズい	-11.6566
挑発	-11.6566
修復	-11.6567
私の家	-11.6567
▁いゝえ	-11.6567
似合わない	-11.6567
経験値	-11.6567
HP	-11.6567
陽菜	-11.6568
いっつも	-11.6568
深刻	-11.6568
難儀	-11.6569
参謀長	-11.657
決断	-11.657
関わり	-11.657
造り	-11.6571
センター	-11.6572
の分も	-11.6572
親類	-11.6574
戻ってきて	-11.6574
思いっきり	-11.6574
フィーネ	-11.6574
名乗って	-11.6575
書状	-11.6575
ぴったり	-11.6575
上杉	-11.6576
予想通り	-11.6576
ハンド	-11.6576
使っていた	-11.6577
らっしゃ	-11.6578
失礼いたします	-11.6579
所持	-11.6579
ご用件	-11.6581
行使	-11.6581
天然	-11.6581
正体を	-11.6582
温かい	-11.6582
ほんま	-11.6582
早くしろ	-11.6582
世代	-11.6584
送った	-11.6584
店員	-11.6585
森の中	-11.6585
そんなことないよ	-11.6586
側室	-11.6586
どう言う事	-11.6586
騎士団長	-11.6587
いきたい	-11.6589
うううう	-11.6589
気遣	-11.6594
小路	-11.6599
をとる	-11.6599
シスター	-11.6601
火力	-11.6603
迷う	-11.6604
根本	-11.6606
したりする	-11.6606
何よりです	-11.6609
悪役	-11.6609
何もしてない	-11.661
たった一人	-11.661
もらえた	-11.6611
オォ	-11.6614
往く	-11.6614
りゃいい	-11.6615
真相	-11.662
幼い	-11.6621
米国	-11.6624
頼みたい	-11.6624
本体	-11.6628
よろしゅう	-11.6628
あの野郎	-11.6629
フィーナ	-11.6642
本番	-11.6651
残す	-11.6651
満た	-11.6652
当たら	-11.6658
たくさんある	-11.6662
互いに	-11.6665
日頃	-11.6671
やってくる	-11.6676
退く	-11.6676
re	-11.668
絡んで	-11.6683
白木	-11.6684
ラッシュ	-11.6687
北方	-11.6688
イケ	-11.669
こんな風に	-11.6694
打て	-11.6708
溶け	-11.6709
寝ている	-11.6712
ショウ様	-11.6714
そうですわね	-11.6714
うれし	-11.6717
PK	-11.672
話していた	-11.6724
〉、〈	-11.6725
堕	-11.6726
んでございます	-11.6726
ものはない	-11.6726
劉	-11.6728
赦	-11.6728
渦	-11.6729
軸	-11.6729
拷問	-11.6729
稔	-11.6729
お見舞い	-11.6729
美乃理	-11.6729
莫迦	-11.6729
解析	-11.6729
賑やか	-11.6729
唇	-11.6729
翻	-11.6729
闘技場	-11.6729
基礎	-11.6729
捌	-11.6729
鍛錬	-11.6729
勲	-11.6729
赤ん坊	-11.6729
配慮	-11.6729
大げさ	-11.6729
フェンリル	-11.6729
お母さま	-11.6729
援助	-11.6729
つまんない	-11.673
小学校	-11.673
脅迫	-11.673
さらば	-11.673
に会え	-11.673
自動車	-11.6731
させて頂きます	-11.6732
至極	-11.6732
再現	-11.6732
首輪	-11.6733
ナンバー	-11.6733
改良	-11.6733
時間がかかる	-11.6733
ナンパ	-11.6733
半兵衛	-11.6734
シャミル	-11.6735
降魔	-11.6736
集落	-11.6736
シシィ	-11.6736
してもらいたい	-11.6736
不気味	-11.6736
▁うーむ	-11.6737
ラッキー	-11.6738
潜入	-11.6741
バリア	-11.6742
ミュー	-11.6742
スラッシュ	-11.6742
発砲	-11.6742
草原	-11.6743
大胆	-11.6744
雪葉	-11.6745
うううううう	-11.6745
ことができた	-11.6747
言いなさい	-11.6747
エアリー	-11.675
▁そういう問題	-11.675
国際	-11.675
持って来た	-11.6751
何としても	-11.6752
と思うんですけど	-11.6752
痛い痛い	-11.6754
逃れ	-11.6756
目指す	-11.6756
高橋	-11.6761
組み合わせ	-11.6765
祐人	-11.6766
間違えて	-11.6767
七日	-11.6769
やってもいい	-11.6774
藤原	-11.6777
ァアア	-11.6778
ぶっ飛ば	-11.678
番組	-11.678
あがって	-11.678
なるまい	-11.6781
持って来て	-11.6782
デモ	-11.6782
決心	-11.6783
おぉぉ	-11.6786
ぅぅぅ	-11.6787
私と一緒に	-11.6789
居ます	-11.679
附け	-11.6791
シャツ	-11.6794
ちゃ駄目	-11.6798
ええええええ	-11.68
消せ	-11.6803
待たせ	-11.6804
弾薬	-11.6812
ひゅ	-11.6817
好き勝手	-11.6819
何をしていた	-11.6821
いる間に	-11.6823
いかなる	-11.6832
賢い	-11.6834
案じ	-11.6842
300	-11.6844
触れて	-11.6844
呪われ	-11.6844
飢え	-11.6844
繰り	-11.6845
飽きた	-11.685
まだ早い	-11.6862
落とされ	-11.6863
慣れない	-11.6868
初期	-11.6869
下がり	-11.6873
みせます	-11.6882
叩いて	-11.6882
なお君	-11.6884
ハツ	-11.6886
この場所	-11.6888
焚	-11.6895
埒	-11.6895
すれば良い	-11.6895
韓	-11.6895
婚姻	-11.6895
盆	-11.6895
御馳走	-11.6895
△	-11.6895
図書室	-11.6895
オープン	-11.6895
モニカ	-11.6895
ざるを得	-11.6895
スポーツ	-11.6895
ツンデレ	-11.6896
遁	-11.6896
貼	-11.6896
錯	-11.6896
気付かれ	-11.6896
おかみさん	-11.6896
睡眠	-11.6896
警護	-11.6896
由梨	-11.6897
転換	-11.6897
乞食	-11.6897
支持	-11.6897
加賀	-11.6897
お世話になりました	-11.6897
創造	-11.6897
差し出	-11.6898
を討つ	-11.6898
にちがいない	-11.6898
▁さーて	-11.6899
視界	-11.6899
追い詰め	-11.6899
そんな訳	-11.6899
レーダー	-11.6901
サンダー	-11.6902
桐生	-11.6902
和希	-11.6902
千穂	-11.6904
青井	-11.6905
どの辺	-11.6906
尋常	-11.6906
再会	-11.6907
二匹	-11.6908
仕上げ	-11.691
ベール	-11.6916
吉祥院さん	-11.692
囲まれ	-11.6925
会えない	-11.6927
心理	-11.6928
痛む	-11.6935
他に何か	-11.6935
奪われた	-11.6935
ありませぬ	-11.6937
強くなって	-11.6941
別れる	-11.6945
ご挨拶	-11.6945
マイル	-11.6949
小型	-11.695
打った	-11.6956
▁なーに	-11.6958
土方	-11.6964
▁うぇ	-11.6965
目的地	-11.6968
捕まえる	-11.6971
考えられる	-11.6974
もう二度と	-11.6979
なさらない	-11.698
興味がある	-11.6988
どちら様	-11.6988
奪われ	-11.6989
ブチ	-11.699
絞め	-11.6993
試作	-11.6994
描いた	-11.7004
国力	-11.7005
迎	-11.7006
の方はどう	-11.701
回目	-11.701
とんでも	-11.7018
しまったのです	-11.7019
垂	-11.7035
ローラン	-11.7044
初日	-11.7046
んですからね	-11.7048
裏切る	-11.7054
代金	-11.7054
見つからない	-11.7056
掴め	-11.7056
嗅	-11.7063
会えた	-11.7063
葛	-11.7065
喪	-11.7065
陳	-11.7065
俳	-11.7065
藪	-11.7065
雌	-11.7065
▁しっかし	-11.7065
美味しかった	-11.7065
飴	-11.7065
椎	-11.7065
ブラッド	-11.7065
橘	-11.7065
ERROR	-11.7065
とは思えません	-11.7065
いっぺん	-11.7065
言っとく	-11.7065
因果	-11.7065
宮廷	-11.7065
曰	-11.7065
おにいちゃん	-11.7065
燃料	-11.7066
返答	-11.7066
アリバイ	-11.7067
抱っこ	-11.7067
片づけ	-11.7067
気にしなくていい	-11.7067
精一杯	-11.7068
態勢	-11.7068
貴族院	-11.7069
見つかり	-11.7069
重大な	-11.707
ギルドマスター	-11.707
ギョ	-11.707
習得	-11.7071
加藤	-11.7072
ライバル	-11.7073
可愛がって	-11.7074
ブロック	-11.7075
美しさ	-11.7076
形式	-11.7078
実質	-11.7078
差し上げ	-11.7079
昨年	-11.708
行儀	-11.708
居りました	-11.7082
行ってらっしゃい	-11.7083
あいにく	-11.7084
▁いやはや	-11.7089
出て行け	-11.7092
いたたた	-11.7094
がんばる	-11.7101
んじゃねぇぞ	-11.7104
保護者	-11.7104
くれればいい	-11.7108
あがる	-11.7113
惚	-11.7115
ミスター	-11.7115
ウォ	-11.7116
電子	-11.7117
様子を見て	-11.7119
ユキナ	-11.7124
御免なさい	-11.7127
予言	-11.7133
戯れ	-11.7136
料金	-11.7136
or	-11.714
ここに居る	-11.7143
なくたって	-11.7146
卑怯者	-11.7148
楓ちゃん	-11.7151
教えてあげ	-11.7153
子孫	-11.7154
しゅうございます	-11.7159
おるのじゃ	-11.7159
集まった	-11.716
使い魔	-11.7166
▁おはよー	-11.7166
空中	-11.7172
してもらおう	-11.7176
冗談じゃない	-11.7177
ご飯食べ	-11.7178
生かして	-11.7181
あんま	-11.7181
込める	-11.7181
行きなさい	-11.7188
全国	-11.7189
高速	-11.7191
あったっけ	-11.7191
させます	-11.7199
たった今	-11.7201
17	-11.7206
を終え	-11.7208
そう思った	-11.7209
そんな顔	-11.7213
待って下さい	-11.7213
間違っている	-11.7214
榊	-11.7221
払わ	-11.7222
手出し	-11.7226
暫	-11.7226
何かあるのか	-11.723
ぼっち	-11.7232
畜	-11.7232
汲	-11.7236
墜	-11.7236
藏	-11.7237
痕	-11.7237
票	-11.7237
ちよつと	-11.7237
萩	-11.7237
憤	-11.7237
謙	-11.7237
罵	-11.7237
畏	-11.7237
ステージ	-11.7237
粛	-11.7237
詫	-11.7237
セシリア	-11.7237
バンビーノ	-11.7237
栞	-11.7237
嬉しかった	-11.7237
惣	-11.7237
躾	-11.7237
(・・・・)	-11.7237
ボロボロ	-11.7237
も同然	-11.7237
薩摩	-11.7238
а	-11.7238
塀	-11.7238
看板	-11.7238
拓都	-11.7238
防衛ライン	-11.7239
いわゆる	-11.7239
副会長	-11.7239
反則	-11.7239
付き合え	-11.7239
ディアナ様	-11.7239
登校	-11.7239
淹れ	-11.724
拳銃	-11.724
下さった	-11.724
▁ふむふむ	-11.724
使わせて	-11.7241
繋いで	-11.7241
アッラー	-11.7241
決勝	-11.7242
at	-11.7242
皇女殿下	-11.7242
PT	-11.7243
転送	-11.7243
学問	-11.7244
電波	-11.7244
ストレス	-11.7245
金剛	-11.7247
何が起こって	-11.7247
強盗	-11.7248
機雷	-11.7249
上昇	-11.7249
哲学	-11.725
纏め	-11.7251
来られた	-11.7256
中止	-11.7256
を殺そうと	-11.7258
ゼスト	-11.726
リョー殿	-11.7261
とともに	-11.7262
下がる	-11.7262
やらかした	-11.7263
14	-11.7264
してみます	-11.7264
乱れ	-11.7265
なんとかなる	-11.7266
ロット	-11.7266
生きていた	-11.7266
を目指	-11.727
宮殿	-11.727
宮城	-11.727
系統	-11.7272
余所	-11.7272
少尉殿	-11.7273
出來	-11.7273
鳴り	-11.7274
メイク	-11.7276
変える	-11.7276
衛兵	-11.7277
ニュ	-11.7278
ったりして	-11.7279
何もしない	-11.7284
買ってきた	-11.7286
シン君	-11.7286
いつ頃	-11.7286
神器	-11.7287
既	-11.7288
足元	-11.7288
カオル	-11.729
カール	-11.7292
言うべき	-11.7292
ダリア	-11.7305
一体誰	-11.7306
お渡し	-11.7309
▁その為に	-11.7311
硬い	-11.7314
どうなってるんだ	-11.7314
タルト	-11.7315
意味がない	-11.7315
がありますので	-11.7316
溜め	-11.7316
だけじゃなく	-11.7319
エイジ	-11.7323
共同	-11.7329
やってくれた	-11.7331
左手	-11.7335
転がって	-11.734
と思ったけど	-11.7341
たくありません	-11.7343
唱	-11.7343
ブロー	-11.735
石高	-11.7358
の傍に	-11.7359
溺れ	-11.7364
北部	-11.7365
飲める	-11.7365
喋れ	-11.7374
また今度	-11.7376
不利	-11.738
am	-11.7381
相川	-11.7386
動いている	-11.7401
闘法	-11.7403
誰なの	-11.7405
外に出て	-11.7406
姓	-11.7408
慮	-11.7411
最上	-11.7412
憐	-11.7412
恒	-11.7412
鬱	-11.7413
逐	-11.7413
嵌	-11.7413
架	-11.7413
生き延び	-11.7413
足手まとい	-11.7413
デザート	-11.7413
碧	-11.7413
バチカン	-11.7413
煽	-11.7413
滅茶苦茶	-11.7413
ヴィルフリート	-11.7413
祟	-11.7413
アメリア	-11.7413
弩	-11.7413
佑	-11.7413
ヵ	-11.7413
考慮	-11.7413
建設	-11.7413
侵略	-11.7413
鎌倉	-11.7413
仲良し	-11.7414
季節	-11.7414
災害	-11.7414
食糧	-11.7415
波瑠	-11.7415
ござらぬ	-11.7415
突っ込む	-11.7416
新鮮	-11.7416
言わせる	-11.7418
あと少し	-11.7418
ファースト	-11.7418
▁うっさい	-11.7419
確かめて	-11.7419
お断りします	-11.7421
海斗くん	-11.7421
何で俺	-11.7422
脱ぎ	-11.7424
新たに	-11.7425
やってくれる	-11.7425
仕入れ	-11.7426
むかし	-11.7426
当初	-11.7427
ふーん	-11.7428
教えてくれた	-11.7429
いらっしゃった	-11.7434
平助	-11.7436
方角	-11.7437
砲兵	-11.7437
エルザ	-11.7437
滅ぼし	-11.7438
云々	-11.7442
叔父上	-11.7443
巨人	-11.7444
しまおう	-11.7446
わかっています	-11.7448
姿を見せ	-11.7449
目玉	-11.7449
的なもの	-11.7451
惚れた	-11.7455
仕方ありません	-11.7457
組合	-11.746
よもや	-11.7464
嫌いじゃない	-11.7467
取られる	-11.7469
本陣	-11.7469
壊して	-11.747
マシン	-11.747
過ごして	-11.7471
中隊長	-11.7472
届いた	-11.7473
産まれ	-11.7475
ターン	-11.7479
解決する	-11.748
暮れ	-11.7487
ごゆっくり	-11.7488
ついてきて	-11.7492
ノック	-11.7508
会った時	-11.7509
させられた	-11.7509
取得	-11.7519
▁へエ	-11.752
失礼する	-11.7521
る場合じゃない	-11.7523
吹っ飛	-11.7526
直前	-11.7531
でやんす	-11.7531
食べさせて	-11.7532
爵	-11.7532
好きなだけ	-11.7548
本当のこと	-11.7553
ぶっ殺す	-11.7555
面倒なこと	-11.7569
姉さま	-11.7574
を受けている	-11.7577
鮮	-11.7586
誕生	-11.7587
孤	-11.7591
麺	-11.7591
遍	-11.7591
嫡	-11.7591
皇太子	-11.7591
鴻	-11.7591
どいつもこいつも	-11.7591
淫	-11.7591
めんどくさい	-11.7591
ファンタジー	-11.7591
助かりました	-11.7591
共和国	-11.7591
アパート	-11.7591
初心者	-11.7591
耶	-11.7591
桶	-11.7591
頓	-11.7591
ヤクザ	-11.7591
矛盾	-11.7592
規則	-11.7592
南蛮	-11.7592
了承	-11.7592
暮らす	-11.7592
豆腐	-11.7593
届かない	-11.7593
一方的に	-11.7594
ソーニャ	-11.7594
追跡	-11.7594
最善	-11.7595
つまらん	-11.7595
グリーン	-11.7596
編隊	-11.7596
NO	-11.7596
最期	-11.7596
巻き込んで	-11.7596
あり得る	-11.7596
召喚獣	-11.7596
血液	-11.7596
綾音	-11.7597
頑張ろう	-11.7598
終わらせる	-11.7598
失礼いたしました	-11.7599
代わって	-11.76
撃退	-11.76
貴官	-11.7601
拡大	-11.7602
制度	-11.7603
ィィ	-11.7608
榊原	-11.7609
守ってくれ	-11.761
少しずつ	-11.7612
ダブル	-11.7615
さっちゃん	-11.7616
ビーム	-11.7617
すんません	-11.7621
ャ	-11.7622
降下	-11.7622
もらえば	-11.7623
訳ではない	-11.7631
直美	-11.7633
ピンク	-11.7636
呼んでくれ	-11.7638
現地	-11.7639
ごほっ	-11.7646
に仕える	-11.7651
申し上げた	-11.7656
帰国	-11.7658
自分だけ	-11.7661
交通	-11.7663
ないとダメ	-11.7675
持った	-11.7675
苦しめ	-11.7681
倒れる	-11.7691
wwww	-11.7697
追われ	-11.7702
いただきましょう	-11.7705
アルフィ	-11.7706
軍団	-11.7706
着せ	-11.7707
か知らないが	-11.7709
ちょっと待ってくれ	-11.771
サクラちゃん	-11.7711
南方	-11.7715
しようとした	-11.7717
握り	-11.772
わたくしたち	-11.7723
松平	-11.7737
行ってもいい	-11.7737
にもなって	-11.7739
沈め	-11.774
戻ろう	-11.7744
頼め	-11.7748
んじゃありません	-11.7755
ぇええええ	-11.7757
興味ない	-11.7764
助けられた	-11.7767
療	-11.7772
瓜	-11.7773
馳	-11.7773
歸	-11.7773
顧	-11.7773
菅	-11.7773
間抜け	-11.7773
ドキドキ	-11.7773
陵	-11.7773
♡	-11.7773
◯	-11.7773
楼	-11.7773
肝心な	-11.7773
媒	-11.7773
ワイバーン	-11.7773
ベース	-11.7774
企画	-11.7774
検討	-11.7774
いたずら	-11.7775
資源	-11.7775
遥かに	-11.7775
演習	-11.7775
以内に	-11.7775
感じがする	-11.7775
近づき	-11.7776
いいかげん	-11.7776
やべぇ	-11.7776
もらわないと	-11.7776
こぼれ	-11.7776
左翼	-11.7776
議論	-11.7776
構造	-11.7776
気が付いた	-11.7777
国王陛下	-11.7777
マンション	-11.7778
志願	-11.7778
明日の朝	-11.778
チャージ	-11.778
野暮	-11.7782
酒井	-11.7783
る事が出来	-11.7784
ぅぅぅぅ	-11.7786
変装	-11.7786
大きくなった	-11.779
苦戦	-11.7792
体質	-11.7792
対空	-11.7794
斬れ	-11.7795
秋姉	-11.7796
二郎	-11.7797
is	-11.7798
バースト	-11.7799
壊した	-11.7803
に決まってんだろ	-11.7804
無念	-11.7805
姿勢	-11.7806
院長	-11.7807
洗う	-11.7813
を探している	-11.7813
致して	-11.7815
トラック	-11.7815
助けられ	-11.7816
フレア	-11.7826
おくべき	-11.7827
減った	-11.7838
混ぜて	-11.7843
ウェル	-11.7846
任せてください	-11.7848
壊れて	-11.7857
つきます	-11.7861
を愛して	-11.7862
河原	-11.7863
に従って	-11.7865
砕け	-11.7865
貸してくれ	-11.7866
外国人	-11.787
好かれ	-11.787
側近	-11.7881
白雪	-11.7896
エレナ	-11.7899
話をした	-11.7901
怒っている	-11.7901
ロープ	-11.7902
わたし達	-11.791
遊びに来	-11.7911
見たところ	-11.7913
んですけれど	-11.7915
ふざけんな	-11.7915
潰され	-11.7926
止まった	-11.793
奴がいる	-11.7936
フィスト	-11.794
戻って来	-11.7941
留ま	-11.7948
ぁぁあああ	-11.7949
歩いている	-11.7951
フゥ	-11.7955
複	-11.7956
取れた	-11.7957
蟹	-11.7958
蚊	-11.7958
欧	-11.7958
情報収集	-11.7958
拗	-11.7958
搾	-11.7958
タケルヒノ	-11.7958
暦	-11.7958
蒲	-11.7958
具体的な	-11.7958
役立たず	-11.7958
不意打ち	-11.7958
謁	-11.7958
クラスメイト	-11.7958
シャイターン主席	-11.7958
隼	-11.7958
すごーい	-11.7958
ヒイロ	-11.7958
推薦	-11.7959
グリフォン	-11.7959
わけにはいきません	-11.7959
未熟	-11.7959
ククク	-11.7959
建築	-11.7959
審判	-11.7959
選ぶ	-11.7959
撃墜	-11.7959
お兄さま	-11.7959
徹底的に	-11.7959
玄徳	-11.796
頭を下げ	-11.796
孔明	-11.796
セリア	-11.796
魔法が使える	-11.796
牛乳	-11.796
免許	-11.7961
リア充	-11.7961
エミリアたん	-11.7961
浅井	-11.7962
之介	-11.7963
お疲れ様でした	-11.7963
レベルアップ	-11.7963
小姓	-11.7963
敵に回	-11.7965
適正	-11.7967
海岸	-11.7967
あるめえ	-11.7968
ヒョ	-11.7968
全速	-11.7968
ピンチ	-11.7968
無ければ	-11.7972
切腹	-11.7972
吠え	-11.7973
見てみろ	-11.7973
実現	-11.7974
掲げ	-11.7974
屋台	-11.7974
恐竜	-11.7976
ゲット	-11.7976
満ち	-11.7977
王位	-11.7979
朝陽	-11.7979
長州	-11.798
大きくなって	-11.7983
主席	-11.7983
塗り	-11.7984
流星	-11.7986
飛竜	-11.7991
泣いてる	-11.7997
請け	-11.7999
フード	-11.8
美術	-11.8002
委員会	-11.8015
を得て	-11.8015
文句を言	-11.8017
サイコ	-11.802
潰せ	-11.8021
以後	-11.8022
双方	-11.8032
オオオオオオ	-11.8032
聞こえます	-11.8044
会ったこと	-11.8045
誠一	-11.8051
依頼を受け	-11.8053
手続き	-11.8055
導師	-11.8063
目が覚めた	-11.8064
無くなって	-11.8067
行っちゃった	-11.8071
教えてやる	-11.8072
別にいいけど	-11.8074
子供たち	-11.8078
に決まってるじゃない	-11.8081
おっしゃった	-11.8082
愚か者	-11.8082
ここまで来た	-11.8091
ええええええええええ	-11.8099
頭の中	-11.8101
オラァ	-11.8103
懲	-11.8105
枯	-11.8105
合っている	-11.8108
声かけ	-11.8119
項	-11.8127
拾った	-11.8134
行つた	-11.8143
喚	-11.8147
嗣	-11.8147
奨	-11.8147
凌	-11.8147
アドバイス	-11.8147
仲直り	-11.8147
ブツブツ	-11.8147
肖	-11.8147
グラッド	-11.8147
峠	-11.8147
▁へいへい	-11.8147
ヘッド	-11.8147
医療	-11.8147
すばらしい	-11.8147
競争	-11.8148
訊きたい	-11.8148
悲劇	-11.8148
監禁	-11.8148
余計なお世話	-11.8148
ポケット	-11.8148
早苗	-11.8149
タクシー	-11.8149
社交	-11.8149
目を覚まし	-11.8149
向かわせ	-11.8149
戦況	-11.8149
説明してくれ	-11.8149
動揺	-11.8149
あたくし	-11.815
ゼノン	-11.815
一種の	-11.815
九郎	-11.815
間に合わない	-11.8151
善処	-11.8153
加勢	-11.8153
激しく	-11.8154
二週間	-11.8155
心配しなくても	-11.8155
無謀	-11.8156
暗黒	-11.8156
異性	-11.8156
オーケー	-11.8156
桜井	-11.8157
ジョブ	-11.8157
書いてあった	-11.8158
とぼけ	-11.8158
いっそのこと	-11.8161
腐れ	-11.8162
隊士	-11.8163
優れた	-11.8164
どうにかなる	-11.8164
体制	-11.8164
旅団	-11.8165
戯言	-11.8167
過ぎます	-11.8167
▁何ですって	-11.8169
信じてくれ	-11.817
七星	-11.8172
女将	-11.8178
部員	-11.8178
演出	-11.8178
柴田	-11.8179
仲がいい	-11.8182
威張	-11.8183
痛かった	-11.8184
頼りにして	-11.8184
駈け	-11.8185
下りて	-11.8189
無意味	-11.8189
ものすごく	-11.8189
探せ	-11.8191
ァァァァァァァァァ	-11.8192
御覧なさい	-11.8193
ジェネ	-11.8194
しちゃい	-11.8195
捕え	-11.8201
何をやっている	-11.8202
連れてきて	-11.8205
取り戻	-11.8207
お待ち下さい	-11.8208
キサマ	-11.8209
一致	-11.8211
研究室	-11.8216
内側	-11.8219
勝ち目	-11.8221
囚	-11.8227
片方	-11.8227
ワープ	-11.8228
暗殺者	-11.8241
といふこと	-11.8243
用事がある	-11.8247
ェェェ	-11.8251
どうなさる	-11.8256
取り返	-11.8259
中将	-11.8263
応じ	-11.8267
に対し	-11.8275
妖魔	-11.828
辺境伯	-11.829
貴国	-11.8294
公爵家	-11.8297
〜〜〜	-11.8298
あげてください	-11.8301
扱え	-11.8302
踏んで	-11.8305
済んで	-11.8317
見かけた	-11.8317
ではないのです	-11.8319
力を貸して	-11.8322
みてぇ	-11.8326
食べれる	-11.8326
防げ	-11.8328
嬉	-11.833
ことにしよう	-11.8336
触り	-11.8337
孔	-11.8338
厄	-11.8339
滞	-11.8339
耕	-11.8339
剃	-11.8339
謹	-11.8339
グォイド	-11.8339
厩	-11.8339
オリジナル	-11.8339
絆	-11.8339
脂	-11.8339
ソフト	-11.8339
義勇軍	-11.8339
牽	-11.8339
中途半端	-11.8339
姫咲さん	-11.8339
危害を加え	-11.8339
シシリー	-11.8339
閑	-11.8339
サッカー	-11.8339
逃がさない	-11.834
李	-11.834
幣	-11.834
到底	-11.834
いささか	-11.834
瑞穂	-11.834
お父さま	-11.834
苗字	-11.834
陰謀	-11.834
詩織	-11.8341
唐突	-11.8341
平均	-11.8341
朝鮮	-11.8342
仕方がありません	-11.8342
ぜったい	-11.8342
伝令	-11.8343
切り札	-11.8343
富士	-11.8343
脱走	-11.8343
ギィ	-11.8343
話せない	-11.8344
編成	-11.8344
残酷	-11.8345
止まらない	-11.8345
言われなくても	-11.8345
透明	-11.8345
箇所	-11.8346
視察	-11.8346
せねば	-11.8346
風景	-11.8346
過程	-11.8346
遠距離	-11.8346
セーフ	-11.8346
射程	-11.8348
ご主人さま	-11.8349
とどめ	-11.8349
見ての通り	-11.8349
わからねえ	-11.835
昼寝	-11.8351
フラウ	-11.8352
メディア	-11.8353
呑み	-11.8354
切り替え	-11.8355
しようとする	-11.8356
表面	-11.8357
を買いに	-11.8366
カノン	-11.8367
決戦	-11.8367
▁ううむ	-11.837
守りたい	-11.8371
こうなって	-11.8378
赤松	-11.8381
懲り	-11.8382
ぎゃああああ	-11.8386
無さそう	-11.8387
遺言	-11.8387
思わず	-11.8389
募集	-11.8392
親しく	-11.8415
酒場	-11.8416
打ち合わせ	-11.8425
通じる	-11.8429
賭	-11.843
許しません	-11.844
の元に	-11.844
ちゃおう	-11.8441
じゃアねえ	-11.8452
越後	-11.8457
を救って	-11.8457
戻らない	-11.8458
短剣	-11.8458
腕前	-11.846
慣	-11.846
か知らないけど	-11.8461
じいさん	-11.8469
百両	-11.8476
に聞いてみ	-11.8479
広ま	-11.848
▁ぎゃあああ	-11.8482
思ってたんだけど	-11.8486
ぃいいいい	-11.849
によれば	-11.8496
がいなくな	-11.85
取らない	-11.8513
なにかあった	-11.8524
比較	-11.8526
行かなきゃ	-11.853
晶	-11.8531
ざけんな	-11.8531
現われ	-11.8532
徴	-11.8534
顕	-11.8535
髭	-11.8535
丞	-11.8535
駐	-11.8535
鯨	-11.8535
徹底	-11.8535
臥	-11.8535
慾	-11.8535
歓	-11.8535
モニター	-11.8535
渇	-11.8535
スケルトン	-11.8535
昴	-11.8535
土下座	-11.8535
大納言様	-11.8535
翁	-11.8535
薪	-11.8535
訂正	-11.8535
フレイム	-11.8535
贈り物	-11.8535
イーノフ	-11.8535
▁カタカタ	-11.8535
大袈裟	-11.8535
批	-11.8536
銅貨	-11.8536
絹	-11.8536
或いは	-11.8536
可憐	-11.8536
戒斗	-11.8536
直ちに	-11.8536
愚痴	-11.8536
過ごせ	-11.8536
混じって	-11.8536
オットー	-11.8536
のもとに	-11.8536
おじさま	-11.8537
供給	-11.8537
鬼畜	-11.8537
同僚	-11.8537
ウォーター	-11.8538
ごちそうさま	-11.8538
巻き込む	-11.8539
悠吾	-11.8539
信濃	-11.8539
表示	-11.8539
近いうちに	-11.8539
泊まる	-11.854
到達	-11.8541
形態	-11.8541
勘定	-11.8541
泳ぎ	-11.8541
悩む	-11.8543
生き残る	-11.8543
異論	-11.8545
飛び込んで	-11.8545
タスク	-11.8546
アルベルト	-11.8547
海底	-11.8547
太夫	-11.8549
シュート	-11.8549
クソ野郎	-11.855
バレット	-11.8552
真琴	-11.8553
腹減った	-11.8557
19	-11.8559
筆頭	-11.8559
やりすぎ	-11.8565
何處	-11.8568
都会	-11.8568
無くなった	-11.8569
ような気がします	-11.8572
枯れ	-11.8578
忙	-11.8618
呆	-11.862
捨	-11.8705
侵	-11.8731
輸	-11.8735
眉	-11.8735
曾	-11.8735
雫	-11.8735
漂	-11.8735
賤	-11.8735
冊	-11.8735
伍	-11.8735
_	-11.8736
薩	-11.8736
筑	-11.8736
募	-11.8884
芝	-11.8937
誌	-11.8939
簿	-11.8939
藻	-11.894
鳳	-11.894
埃	-11.894
祓	-11.894
蜀	-11.894
釜	-11.894
慰	-11.902
姐	-11.9083
儲	-11.91
鉱	-11.914
蛮	-11.9144
荘	-11.9146
範	-11.9146
蒙	-11.9147
廉	-11.9148
舗	-11.9148
妬	-11.9148
紺	-11.9148
魏	-11.9148
摺	-11.9148
喧	-11.9148
廿	-11.9149
占	-11.9259
弘	-11.9345
條	-11.9359
均	-11.9359
儘	-11.936
桁	-11.936
*	-11.936
累	-11.936
菱	-11.9361
刊	-11.9361
斥	-11.9361
揃	-11.9396
齢	-11.9575
維	-11.9576
禅	-11.9578
膚	-11.9578
眞	-11.9578
排	-11.9578
稜	-11.9578
淵	-11.9578
梢	-11.9578
巳	-11.9578
澪	-11.9578
侮	-11.9578
輿	-11.9578
駿	-11.9578
豹	-11.9578
蟲	-11.9578
屁	-11.9578
壕	-11.9578
扶	-11.9578
稚	-11.9578
坑	-11.9578
棺	-11.9579
戰	-11.9748
撤	-11.9799
學	-11.9799
漸	-11.98
販	-11.98
□	-11.98
吟	-11.98
甥	-11.98
篭	-11.98
胞	-11.98
潤	-11.98
翠	-11.98
蒔	-11.98
梶	-11.98
叉	-11.98
檻	-11.98
蛙	-12.0027
湿	-12.0027
芯	-12.0027
●	-12.0027
禿	-12.0027
賓	-12.0027
'	-12.0027
夷	-12.0028
擁	-12.0028
彗	-12.0028
醒	-12.026
—	-12.026
蔦	-12.026
蔓	-12.026
鞍	-12.026
腸	-12.026
叛	-12.026
蛍	-12.026
柵	-12.026
鴨	-12.026
漏	-12.0457
哀	-12.0493
況	-12.0494
撲	-12.0497
准	-12.0498
璃	-12.0498
腫	-12.0498
忽	-12.0498
虹	-12.0498
琉	-12.0498
垢	-12.0498
陶	-12.0498
挽	-12.0498
爽	-12.0498
梁	-12.0498
尖	-12.0498
弊	-12.0498
掠	-12.0498
畠	-12.0498
悶	-12.0498
滴	-12.0499
萌	-12.062
昨	-12.0712
験	-12.0737
姦	-12.0742
且	-12.0742
粂	-12.0742
姪	-12.0742
弦	-12.0742
諾	-12.0742
繊	-12.0742
但	-12.0742
蔽	-12.0742
菌	-12.0742
俵	-12.0742
遙	-12.0742
痒	-12.0742
措	-12.0742
樋	-12.0742
勧	-12.0932
慢	-12.099
妓	-12.0991
猶	-12.0992
洩	-12.0992
姑	-12.0992
篤	-12.0992
培	-12.0992
漆	-12.0992
曇	-12.0992
銘	-12.0992
傑	-12.1227
援	-12.1233
般	-12.1238
央	-12.1241
勉	-12.1247
焔	-12.1248
痺	-12.1248
促	-12.1248
曳	-12.1248
梯	-12.1248
煉	-12.1248
❗	-12.1248
≪	-12.1248
杜	-12.1248
遼	-12.1248
需	-12.1249
頸	-12.1249
綴	-12.1249
咳	-12.1249
斑	-12.1249
患	-12.148
廊	-12.1502
餓	-12.1511
轄	-12.1511
劫	-12.1511
阻	-12.1511
瞑	-12.1511
邦	-12.1511
躙	-12.1511
袁	-12.1512
膜	-12.1512
頷	-12.1512
碑	-12.1512
哨	-12.1512
叔	-12.1608
疵	-12.1781
蔑	-12.1781
唾	-12.1782
娼	-12.1782
濁	-12.1782
衞	-12.1782
湊	-12.1782
囁	-12.1782
錆	-12.1782
x	-12.1782
Q	-12.1782
莫	-12.1782
貢	-12.1782
硝	-12.1782
箸	-12.1782
貶	-12.1782
煌	-12.1782
轢	-12.1782
播	-12.1782
倅	-12.1783
訓	-12.2059
撰	-12.2059
嘗	-12.2059
碁	-12.206
譜	-12.206
腑	-12.206
j	-12.206
詠	-12.206
邑	-12.206
≫	-12.206
挺	-12.206
径	-12.206
亘	-12.206
采	-12.206
朽	-12.206
兩	-12.206
怯	-12.2139
幡	-12.2343
遮	-12.2344
盃	-12.2345
漫	-12.2345
挫	-12.2345
穀	-12.2345
憚	-12.2345
藉	-12.2345
脆	-12.2345
勅	-12.2345
娯	-12.2345
惰	-12.2345
喩	-12.2345
捗	-12.2345
伜	-12.2346
撫	-12.2547
忘	-12.2548
携	-12.2638
乏	-12.2639
牌	-12.2639
辣	-12.2639
擲	-12.2639
顏	-12.2639
択	-12.2639
遜	-12.2639
會	-12.2639
勾	-12.2639
吏	-12.2639
呈	-12.2639
冒	-12.2639
蝿	-12.2639
欄	-12.2639
董	-12.2639
梗	-12.264
縋	-12.264
妊	-12.264
袴	-12.264
矛	-12.264
辿	-12.2878
寵	-12.2938
妨	-12.2942
謡	-12.2942
妄	-12.2942
粥	-12.2942
剖	-12.2942
頻	-12.2942
憫	-12.2942
琥	-12.2942
顎	-12.2942
麟	-12.2942
‐	-12.2942
朴	-12.2943
茨	-12.2943
晃	-12.2943
旭	-12.2943
閤	-12.2943
隱	-12.2943
憶	-12.2945
實	-12.3254
錦	-12.3255
髄	-12.3255
升	-12.3255
挿	-12.3255
把	-12.3255
掟	-12.3255
媚	-12.3255
徐	-12.3255
昏	-12.3255
弔	-12.3255
枢	-12.3255
鯛	-12.3255
榎	-12.3255
罷	-12.3255
凜	-12.3255
麿	-12.3255
凱	-12.3255
鉛	-12.3255
索	-12.3451
匂	-12.3475
偵	-12.3577
潟	-12.3577
瞭	-12.3577
楚	-12.3577
刷	-12.3577
嚇	-12.3577
噺	-12.3578
嗟	-12.3578
朔	-12.3578
堺	-12.3578
沓	-12.3578
賄	-12.3578
β	-12.3578
玖	-12.3578
鞘	-12.3578
鮎	-12.3578
倖	-12.3578
洪	-12.3578
兜	-12.3578
肴	-12.3578
艶	-12.3578
黛	-12.3578
捲	-12.3578
讃	-12.3578
珊	-12.3578
唸	-12.3578
朋	-12.3578
楯	-12.3578
瀧	-12.3578
胎	-12.3578
飽	-12.3755
抑	-12.3777
惜	-12.3782
哲	-12.3886
搬	-12.391
騰	-12.3911
娶	-12.3911
堤	-12.3911
裾	-12.3911
叙	-12.3911
檀	-12.3911
孵	-12.3911
瘴	-12.3911
箒	-12.3911
芙	-12.3911
套	-12.3911
唆	-12.3911
岬	-12.3911
栽	-12.3911
啼	-12.3911
膏	-12.3911
賦	-12.3911
詳	-12.4252
恰	-12.4254
抛	-12.4255
駕	-12.4255
鯉	-12.4255
綺	-12.4255
羞	-12.4255
奔	-12.4256
嬌	-12.4256
薔	-12.4256
藝	-12.4256
襟	-12.4256
麓	-12.4256
敦	-12.4256
榴	-12.4256
篇	-12.4256
燥	-12.4256
躱	-12.4256
肺	-12.4256
棗	-12.4256
俄	-12.4256
飢	-12.4363
駈	-12.4539
贄	-12.46
拠	-12.461
按	-12.4612
閥	-12.4612
餐	-12.4613
遷	-12.4613
皺	-12.4613
斃	-12.4613
賽	-12.4613
訣	-12.4613
狡	-12.4613
貪	-12.4613
ゎ	-12.4613
逞	-12.4613
體	-12.4613
鰻	-12.4613
閲	-12.4613
哥	-12.4613
雁	-12.4613
鱈	-12.4613
窩	-12.4613
悉	-12.4613
卯	-12.4613
努	-12.4964
究	-12.4983
曽	-12.4983
汐	-12.4983
愕	-12.4983
昆	-12.4983
萬	-12.4983
厠	-12.4983
抉	-12.4983
〔	-12.4983
朧	-12.4983
酢	-12.4983
債	-12.4983
壬	-12.4983
苺	-12.4983
鷲	-12.4983
覺	-12.4983
慄	-12.4983
珈	-12.4983
灼	-12.4984
隷	-12.5364
稽	-12.5367
憾	-12.5367
契	-12.5367
裳	-12.5368
樺	-12.5368
暢	-12.5368
漕	-12.5368
寢	-12.5368
#	-12.5368
秦	-12.5368
ヱ	-12.5368
茸	-12.5368
〕	-12.5368
葱	-12.5368
享	-12.5368
柑	-12.5368
霜	-12.5368
縊	-12.5368
蕾	-12.5368
濟	-12.5368
胤	-12.5368
晦	-12.5368
嶺	-12.5368
鋒	-12.5369
寂	-12.5703
柏	-12.5737
拍	-12.5753
栖	-12.5767
凧	-12.5767
渉	-12.5767
糖	-12.5768
滋	-12.5768
孕	-12.5768
$	-12.5768
硫	-12.5768
祠	-12.5768
諭	-12.5768
棍	-12.5768
淀	-12.5768
茹	-12.5768
呀	-12.5768
瀕	-12.5768
耀	-12.5768
凪	-12.5768
忝	-12.5768
蝉	-12.5768
鍬	-12.5768
隈	-12.5768
呵	-12.5768
糾	-12.5768
諫	-12.5768
漬	-12.6151
繰	-12.6171
臆	-12.6183
陀	-12.6184
荻	-12.6184
汰	-12.6184
巷	-12.6184
郭	-12.6184
咄	-12.6185
迦	-12.6185
惧	-12.6185
樫	-12.6185
蹟	-12.6185
已	-12.6185
參	-12.6185
翡	-12.6185
藁	-12.6185
煎	-12.6185
誑	-12.6185
顛	-12.6185
嚢	-12.6185
鋳	-12.6185
彌	-12.6185
吃	-12.6185
慨	-12.6185
樂	-12.6185
汽	-12.6618
髷	-12.6619
仔	-12.6619
饒	-12.6619
拐	-12.6619
循	-12.6619
峯	-12.6619
楊	-12.6619
卸	-12.6619
漠	-12.6619
冑	-12.6619
函	-12.6619
槽	-12.6619
祀	-12.6619
綻	-12.6619
芒	-12.6619
❤	-12.6619
臼	-12.6619
墾	-12.6619
灸	-12.6619
迅	-12.6619
窃	-12.6619
礫	-12.6619
勃	-12.6619
凹	-12.6619
巌	-12.6619
爲	-12.6619
厨	-12.662
昂	-12.662
衾	-12.662
濡	-12.6775
頑	-12.7072
窟	-12.7073
嬲	-12.7074
郊	-12.7074
薦	-12.7074
錢	-12.7074
鳶	-12.7074
鮫	-12.7074
阜	-12.7074
嘸	-12.7074
鮭	-12.7074
伎	-12.7074
餞	-12.7074
旬	-12.7074
惇	-12.7074
罹	-12.7074
舶	-12.7074
鰍	-12.7074
刎	-12.7074
鴉	-12.7074
柘	-12.7074
餘	-12.7074
蛆	-12.7074
殉	-12.7074
徊	-12.7074
竿	-12.7074
炒	-12.7074
該	-12.7074
瘡	-12.7074
腎	-12.7074
狗	-12.7547
帥	-12.7548
贋	-12.7549
渾	-12.755
衡	-12.755
愉	-12.755
亦	-12.755
奧	-12.755
ゑ	-12.755
趙	-12.755
咽	-12.755
菫	-12.755
傀	-12.755
渚	-12.755
餉	-12.755
髯	-12.755
瞞	-12.755
鵜	-12.755
簪	-12.755
燻	-12.755
据	-12.782
鍛	-12.7905
箇	-12.8033
帽	-12.8035
繼	-12.8049
庶	-12.8049
疫	-12.805
曝	-12.805
祷	-12.805
蕩	-12.805
謳	-12.805
癇	-12.805
郁	-12.805
焉	-12.805
捏	-12.805
亥	-12.805
箕	-12.805
芥	-12.805
肢	-12.805
峡	-12.805
渓	-12.805
婢	-12.805
浚	-12.805
鶯	-12.805
倶	-12.805
攘	-12.805
塁	-12.805
兇	-12.805
乘	-12.805
騷	-12.805
疲	-12.8442
慌	-12.8471
尤	-12.8518
涯	-12.8536
購	-12.8574
誹	-12.8576
喝	-12.8576
舜	-12.8576
呟	-12.8576
ω	-12.8576
牝	-12.8576
禮	-12.8576
杵	-12.8576
α	-12.8576
詐	-12.8576
賑	-12.8576
冤	-12.8576
簾	-12.8576
彷	-12.8576
掏	-12.8576
烝	-12.8576
儚	-12.8576
`	-12.8576
寡	-12.8576
紡	-12.8576
奸	-12.8576
僻	-12.8577
聽	-12.8577
蛸	-12.8577
匙	-12.8577
譯	-12.8577
峨	-12.8577
屠	-12.8577
溺	-12.8726
拵	-12.8835
屯	-12.9103
緊	-12.9129
廷	-12.9129
磐	-12.9131
斷	-12.9131
廟	-12.9131
鄙	-12.9132
苑	-12.9132
寅	-12.9132
竟	-12.9132
宥	-12.9132
撥	-12.9132
倣	-12.9132
猥	-12.9132
祁	-12.9132
♥	-12.9132
丑	-12.9132
桟	-12.9132
埼	-12.9132
枷	-12.9132
殘	-12.9132
杭	-12.9132
吝	-12.9132
弐	-12.9132
秤	-12.9132
喬	-12.9132
埜	-12.9132
嵩	-12.9132
甦	-12.9132
肘	-12.9132
❕	-12.9132
肋	-12.9132
∀	-12.9132
櫛	-12.9132
鸞	-12.9132
坪	-12.9132
餡	-12.9132
梟	-12.9132
誅	-12.9132
饉	-12.9132
蕗	-12.9132
乎	-12.9132
畔	-12.9133
阪	-12.9707
軌	-12.9713
誼	-12.9719
彬	-12.9719
稿	-12.9719
毀	-12.9719
托	-12.972
註	-12.972
滲	-12.972
堵	-12.972
椒	-12.972
耽	-12.972
梵	-12.972
褄	-12.972
佃	-12.972
忰	-12.972
嘲	-12.972
廓	-12.972
燐	-12.972
−	-12.972
矜	-12.972
尿	-12.972
鷺	-12.972
★	-12.972
繩	-12.972
應	-12.972
厶	-12.972
艘	-12.9721
啖	-12.9721
脊	-12.9721
ヰ	-12.9721
掲	-13.0292
迂	-13.0336
械	-13.0343
蘆	-13.0344
紹	-13.0344
咬	-13.0345
寐	-13.0345
恢	-13.0345
閻	-13.0345
墳	-13.0345
埓	-13.0345
楔	-13.0345
于	-13.0345
鹵	-13.0345
亞	-13.0345
炙	-13.0345
翅	-13.0345
■	-13.0345
饌	-13.0345
靜	-13.0345
掬	-13.0345
幌	-13.0345
栓	-13.0345
槻	-13.0345
ゔ	-13.0345
耄	-13.0345
跨	-13.0345
拔	-13.0345
涜	-13.0345
捷	-13.0345
隨	-13.0345
裡	-13.0345
魯	-13.0345
欣	-13.0345
蜃	-13.0345
訛	-13.0345
壱	-13.0346
唖	-13.0346
櫓	-13.0346
踵	-13.0346
抵	-13.1002
熾	-13.1011
經	-13.1011
蝋	-13.1011
邊	-13.1011
譬	-13.1011
填	-13.1011
聯	-13.1011
訝	-13.1011
о	-13.1012
ত	-13.1012
弼	-13.1012
醸	-13.1012
鸚	-13.1012
鯖	-13.1012
|	-13.1012
◇	-13.1012
蚤	-13.1012
汎	-13.1012
鏑	-13.1012
寨	-13.1012
黎	-13.1012
臍	-13.1012
痣	-13.1012
鞠	-13.1012
滾	-13.1012
與	-13.1012
錨	-13.1012
儒	-13.1012
韻	-13.1012
陪	-13.1012
默	-13.1012
傳	-13.1012
凸	-13.1012
笥	-13.1012
鋏	-13.1012
濫	-13.1012
瑜	-13.1013
濠	-13.1013
茎	-13.1015
咎	-13.1655
肯	-13.1724
嶮	-13.1725
扮	-13.1725
琢	-13.1725
讐	-13.1725
姜	-13.1725
厘	-13.1725
嬶	-13.1725
窒	-13.1725
耗	-13.1726
圃	-13.1726
虜	-13.1726
慥	-13.1726
雉	-13.1726
諺	-13.1726
@	-13.1726
戟	-13.1726
畿	-13.1726
〆	-13.1726
峻	-13.1726
賣	-13.1726
矯	-13.1726
朕	-13.1726
嬰	-13.1726
侠	-13.1726
[...]
